{
    "!": 49795,
    "\"": 58032,
    "#": 144412,
    "$": 99053,
    "%": 136417,
    "&": 122941,
    "'": 36466,
    "(": 45535,
    ")": 103835,
    "*": 87631,
    "+": 19176,
    ",": 100769,
    "-": 40283,
    ".": 88722,
    "/": 64332,
    "0": 133975,
    "1": 92416,
    "2": 62257,
    "3": 37520,
    "4": 43962,
    "5": 115796,
    "6": 137340,
    "7": 81676,
    "8": 64211,
    "9": 132704,
    ":": 2899,
    ";": 145212,
    "<": 1221,
    "=": 141373,
    ">": 149387,
    "?": 83382,
    "@": 89984,
    "A": 87682,
    "B": 64755,
    "C": 111154,
    "D": 8456,
    "E": 127949,
    "F": 54195,
    "G": 66814,
    "H": 129789,
    "I": 104030,
    "J": 68312,
    "K": 118438,
    "L": 697,
    "M": 70486,
    "N": 86980,
    "O": 35217,
    "P": 81835,
    "Q": 24479,
    "R": 63220,
    "S": 22231,
    "T": 6515,
    "U": 85119,
    "V": 51354,
    "W": 8147,
    "X": 76646,
    "Y": 119568,
    "Z": 15720,
    "[": 105600,
    "\\": 121996,
    "]": 144475,
    "^": 48117,
    "_": 78537,
    "`": 114148,
    "a": 70090,
    "b": 115170,
    "c": 85991,
    "d": 113848,
    "e": 89199,
    "f": 150003,
    "g": 105045,
    "h": 70538,
    "i": 65330,
    "j": 134665,
    "k": 135609,
    "l": 77321,
    "m": 12541,
    "n": 103693,
    "o": 33776,
    "p": 56753,
    "q": 77159,
    "r": 77577,
    "s": 41706,
    "t": 142424,
    "u": 88812,
    "v": 107015,
    "w": 22895,
    "x": 19145,
    "y": 31526,
    "z": 105031,
    "{": 111657,
    "|": 73995,
    "}": 130596,
    "~": 54250,
    "¡": 15715,
    "¢": 94682,
    "£": 87744,
    "¤": 8769,
    "¥": 14788,
    "¦": 129672,
    "§": 102053,
    "¨": 135482,
    "©": 1448,
    "ª": 111469,
    "«": 142649,
    "¬": 9913,
    "®": 63541,
    "¯": 106923,
    "°": 54202,
    "±": 45265,
    "²": 105128,
    "³": 71623,
    "´": 14816,
    "µ": 62855,
    "¶": 107655,
    "·": 129382,
    "¸": 98333,
    "¹": 18061,
    "º": 63817,
    "»": 26774,
    "¼": 25844,
    "½": 71944,
    "¾": 56029,
    "¿": 89721,
    "À": 102840,
    "Á": 106387,
    "Â": 135414,
    "Ã": 41987,
    "Ä": 115648,
    "Å": 15198,
    "Æ": 10286,
    "Ç": 37647,
    "È": 9186,
    "É": 42940,
    "Ê": 30581,
    "Ë": 71539,
    "Ì": 124311,
    "Í": 135234,
    "Î": 136201,
    "Ï": 53896,
    "Ð": 53280,
    "Ñ": 69776,
    "Ò": 64342,
    "Ó": 57513,
    "Ô": 113028,
    "Õ": 139300,
    "Ö": 131317,
    "×": 148673,
    "Ø": 73005,
    "Ù": 44260,
    "Ú": 62537,
    "Û": 21160,
    "Ü": 69456,
    "Ý": 137271,
    "Þ": 76249,
    "ß": 129438,
    "à": 50638,
    "á": 138531,
    "â": 32724,
    "ã": 31685,
    "ä": 47393,
    "å": 78367,
    "æ": 552,
    "ç": 44381,
    "è": 49807,
    "é": 102440,
    "ê": 40748,
    "ë": 18615,
    "ì": 51365,
    "í": 142561,
    "î": 87124,
    "ï": 91339,
    "ð": 104663,
    "ñ": 105110,
    "ò": 107069,
    "ó": 76445,
    "ô": 60845,
    "õ": 8861,
    "ö": 122821,
    "÷": 96293,
    "ø": 137766,
    "ù": 59845,
    "ú": 56186,
    "û": 35668,
    "ü": 45417,
    "ý": 91227,
    "þ": 114724,
    "ÿ": 121508,
    "Ā": 46398,
    "ā": 75034,
    "Ă": 130709,
    "ă": 39181,
    "Ą": 140924,
    "ą": 39053,
    "Ć": 93918,
    "ć": 85624,
    "Ĉ": 107134,
    "ĉ": 135906,
    "Ċ": 22564,
    "ċ": 32955,
    "Č": 101164,
    "č": 41406,
    "Ď": 37175,
    "ď": 30184,
    "Đ": 17458,
    "đ": 89832,
    "Ē": 19096,
    "ē": 35175,
    "Ĕ": 137474,
    "ĕ": 147738,
    "Ė": 10485,
    "ė": 148334,
    "Ę": 21232,
    "ę": 88551,
    "Ě": 143959,
    "ě": 38864,
    "Ĝ": 48726,
    "ĝ": 90593,
    "Ğ": 148682,
    "ğ": 48686,
    "Ġ": 109533,
    "ġ": 114925,
    "Ģ": 74953,
    "ģ": 61466,
    "Ĥ": 79993,
    "ĥ": 89827,
    "Ħ": 103364,
    "ħ": 28417,
    "Ĩ": 63255,
    "ĩ": 10601,
    "Ī": 9841,
    "ī": 25357,
    "Ĭ": 117309,
    "ĭ": 147645,
    "Į": 21319,
    "į": 59061,
    "İ": 99017,
    "ı": 16138,
    "Ĳ": 18619,
    "ĳ": 74054,
    "Ĵ": 21091,
    "ĵ": 102611,
    "Ķ": 140063,
    "ķ": 138702,
    "ĸ": 88067,
    "Ĺ": 62692,
    "ĺ": 906,
    "Ļ": 5520,
    "ļ": 11386,
    "Ľ": 63431,
    "ľ": 143186,
    "Ŀ": 113039,
    "ŀ": 127503,
    "Ł": 149039,
    "ł": 57947,
    "Ń": 64389,
    "ĠĠ": 101923,
    "ĠĠĠĠ": 112945,
    "in": 28506,
    "Ġt": 111382,
    "ĠĠĠĠĠĠĠĠ": 104839,
    "er": 9891,
    "ĠĠĠ": 9018,
    "on": 122113,
    "Ġa": 59031,
    "re": 101193,
    "at": 81813,
    "st": 97328,
    "en": 18500,
    "or": 65216,
    "Ġth": 54548,
    "ĊĊ": 54967,
    "Ġc": 81423,
    "le": 97887,
    "Ġs": 126202,
    "it": 49793,
    "an": 45363,
    "ar": 75309,
    "al": 122698,
    "Ġthe": 124129,
    ";Ċ": 2086,
    "Ġp": 5452,
    "Ġf": 141040,
    "ou": 55699,
    "Ġ=": 29622,
    "is": 89958,
    "ĠĠĠĠĠĠĠ": 34726,
    "ing": 126109,
    "es": 9502,
    "Ġw": 143854,
    "ion": 5256,
    "ed": 121246,
    "ic": 147345,
    "Ġb": 137860,
    "Ġd": 7491,
    "et": 35526,
    "Ġm": 151474,
    "Ġo": 122345,
    "ĉĉ": 148959,
    "ro": 140693,
    "as": 51809,
    "el": 15858,
    "ct": 114851,
    "nd": 64816,
    "Ġin": 109618,
    "Ġh": 149952,
    "ent": 73113,
    "id": 31889,
    "Ġn": 22918,
    "am": 3678,
    "ĠĠĠĠĠĠĠĠĠĠĠ": 16109,
    "Ġto": 54729,
    "Ġre": 56650,
    "--": 88414,
    "Ġ{": 73528,
    "Ġof": 141520,
    "om": 24283,
    ");Ċ": 85669,
    "im": 46368,
    "čĊ": 7961,
    "Ġ(": 124266,
    "il": 51827,
    "//": 127467,
    "Ġand": 99835,
    "ur": 22700,
    "se": 45457,
    "Ġl": 89429,
    "ex": 37049,
    "ĠS": 6021,
    "ad": 15618,
    "Ġ\"": 95408,
    "ch": 6137,
    "ut": 25394,
    "if": 137254,
    "**": 17996,
    "Ġ}": 20960,
    "em": 144303,
    "ol": 90685,
    "ĠĠĠĠĠĠĠĠĠĠĠĠĠĠĠĠ": 129080,
    "th": 18835,
    ")Ċ": 8430,
    "Ġ{Ċ": 72495,
    "Ġg": 42144,
    "ig": 65012,
    "iv": 32357,
    ",Ċ": 49931,
    "ce": 109637,
    "od": 50949,
    "Ġv": 84713,
    "ate": 101340,
    "ĠT": 35212,
    "ag": 147068,
    "ay": 86152,
    "Ġ*": 71067,
    "ot": 127007,
    "us": 50483,
    "ĠC": 111946,
    "Ġst": 56084,
    "ĠI": 13267,
    "un": 11728,
    "ul": 98738,
    "ue": 37939,
    "ĠA": 110124,
    "ow": 122472,
    "Ġ'": 132043,
    "ew": 142313,
    "Ġ<": 72360,
    "ation": 91032,
    "()": 115460,
    "Ġfor": 87162,
    "ab": 108310,
    "ort": 30411,
    "um": 46251,
    "ame": 68117,
    "Ġis": 30673,
    "pe": 74487,
    "tr": 111407,
    "ck": 38783,
    "âĢ": 39445,
    "Ġy": 21583,
    "ist": 100972,
    "----": 47043,
    ".ĊĊ": 140609,
    "he": 89608,
    "Ġe": 22228,
    "lo": 62174,
    "ĠM": 122142,
    "Ġbe": 150757,
    "ers": 21673,
    "Ġon": 41736,
    "Ġcon": 135601,
    "ap": 87449,
    "ub": 23431,
    "ĠP": 67721,
    "ĠĠĠĠĠĠĠĠĠĠĠĠĠĠĠ": 144323,
    "ass": 52665,
    "int": 33925,
    ">Ċ": 34083,
    "ly": 44602,
    "urn": 28974,
    "Ġ$": 87443,
    ";ĊĊ": 103239,
    "av": 63819,
    "port": 136351,
    "ir": 143737,
    "->": 60692,
    "nt": 12330,
    "ction": 81183,
    "end": 3,
    "Ġde": 26610,
    "ith": 97629,
    "out": 64490,
    "turn": 56364,
    "our": 134789,
    "ĠĠĠĠĠ": 113918,
    "lic": 86988,
    "res": 133618,
    "pt": 59329,
    "==": 117028,
    "Ġthis": 33166,
    "Ġwh": 87932,
    "Ġif": 62229,
    "ĠD": 39030,
    "ver": 100460,
    "age": 96589,
    "ĠB": 83895,
    "ht": 112484,
    "ext": 81245,
    "=\"": 32713,
    "Ġthat": 77234,
    "****": 85954,
    "ĠR": 140847,
    "Ġit": 15839,
    "ess": 3706,
    "ĠF": 8480,
    "Ġr": 8676,
    "os": 39263,
    "and": 50456,
    "Ġas": 119274,
    "ect": 104627,
    "ke": 29763,
    "rom": 22182,
    "Ġ//": 120767,
    "con": 107913,
    "ĠL": 25176,
    "(\"": 81096,
    "qu": 119451,
    "lass": 18882,
    "Ġwith": 123515,
    "iz": 61624,
    "de": 145830,
    "ĠN": 27787,
    "Ġal": 129465,
    "op": 145059,
    "up": 20644,
    "get": 78201,
    "Ġ}Ċ": 11516,
    "ile": 31674,
    "Ġan": 40204,
    "ata": 95639,
    "ore": 28899,
    "ri": 39332,
    "Ġpro": 120732,
    ";čĊ": 11570,
    "ĉĉĉĉ": 32136,
    "ter": 13742,
    "ain": 75165,
    "ĠW": 125699,
    "ĠE": 66096,
    "Ġcom": 13845,
    "Ġreturn": 137689,
    "art": 42855,
    "ĠH": 20559,
    "ack": 88978,
    "import": 135020,
    "ublic": 94143,
    "Ġor": 84465,
    "est": 1654,
    "ment": 105485,
    "ĠG": 102884,
    "able": 22283,
    "Ġ-": 126732,
    "ine": 68159,
    "ill": 9847,
    "ind": 100063,
    "ere": 60670,
    "::": 63920,
    "ity": 57429,
    "Ġ+": 151262,
    "Ġtr": 70895,
    "elf": 3373,
    "ight": 22833,
    "('": 97854,
    "orm": 151589,
    "ult": 68055,
    "str": 11464,
    "..": 6431,
    "\",": 85064,
    "Ġyou": 146258,
    "ype": 105112,
    "pl": 43342,
    "Ġnew": 60958,
    "Ġj": 144784,
    "ĠĠĠĠĠĠĠĠĠĠĠĠĠĠĠĠĠĠĠ": 118531,
    "Ġfrom": 24019,
    "Ġex": 20212,
    "ĠO": 79633,
    "ld": 141233,
    "Ġ[": 91290,
    "oc": 119528,
    ":Ċ": 43097,
    "Ġse": 126532,
    "Ġle": 122884,
    "--------": 74660,
    ".s": 129505,
    "{Ċ": 82446,
    "',": 29215,
    "ant": 100418,
    "Ġat": 118719,
    "ase": 129100,
    ".c": 88040,
    "Ġch": 47776,
    "</": 132448,
    "ave": 81231,
    "ang": 857,
    "Ġare": 11654,
    "Ġint": 82028,
    "âĢĻ": 112198,
    "_t": 83719,
    "ert": 143676,
    "ial": 35342,
    "act": 131709,
    "}Ċ": 33589,
    "ive": 45043,
    "ode": 4579,
    "ost": 138700,
    "Ġclass": 101041,
    "Ġnot": 16778,
    "og": 94846,
    "ord": 135689,
    "alue": 77270,
    "all": 43853,
    "ff": 5267,
    "();Ċ": 95812,
    "ont": 40366,
    "ime": 107215,
    "are": 1961,
    "ĠU": 25511,
    "Ġpr": 138830,
    "Ġ:": 81544,
    "ies": 86524,
    "ize": 148624,
    "ure": 24330,
    "Ġby": 30387,
    "ire": 66227,
    "Ġ}ĊĊ": 18026,
    ".p": 15038,
    "Ġsh": 127791,
    "ice": 135604,
    "ast": 44201,
    "ption": 12665,
    "tring": 125548,
    "ok": 69589,
    "__": 118419,
    "cl": 112328,
    "##": 78103,
    "Ġhe": 90439,
    "ard": 28898,
    ").": 64996,
    "Ġ@": 98980,
    "iew": 18370,
    "ĉĉĉ": 109589,
    "Ġwas": 99850,
    "ip": 39142,
    "this": 95759,
    "Ġu": 53937,
    "ĠThe": 80492,
    "ide": 70371,
    "ace": 27325,
    "ib": 73146,
    "ac": 51875,
    "rou": 126179,
    "Ġwe": 123934,
    "ject": 90638,
    "Ġpublic": 32957,
    "ak": 120640,
    "ve": 79643,
    "ath": 110317,
    "oid": 93161,
    "Ġ=>": 6616,
    "ust": 126116,
    "que": 25024,
    "Ġres": 11629,
    "))": 73530,
    "'s": 118925,
    "Ġk": 29385,
    "ans": 85476,
    "yst": 33527,
    "unction": 124433,
    "********": 109510,
    "Ġi": 149174,
    "Ġus": 69215,
    "pp": 96186,
    "one": 70985,
    "ail": 36090,
    "====": 126164,
    "name": 14942,
    "Ġstr": 42113,
    "Ġ/": 46454,
    "Ġ&": 96309,
    "ach": 140784,
    "div": 149851,
    "ystem": 95678,
    "ell": 57775,
    "Ġhave": 53412,
    "err": 84259,
    "ould": 99697,
    "ull": 25683,
    "pon": 79820,
    "ĠJ": 93731,
    "_p": 117785,
    "Ġ==": 110315,
    "ign": 37652,
    "St": 53417,
    ".Ċ": 93463,
    "Ġpl": 101065,
    ");ĊĊ": 122611,
    "form": 139715,
    "put": 113018,
    "ount": 85882,
    "}ĊĊ": 16383,
    "dd": 98107,
    "ite": 147163,
    "Ġget": 123074,
    "rr": 85445,
    "ome": 143865,
    "ĠâĢ": 12666,
    "aram": 23748,
    "cc": 137900,
    "Ġ*/": 116731,
    "ER": 124624,
    "In": 108458,
    "les": 96031,
    "_s": 89453,
    "ong": 77574,
    "ie": 15136,
    "Ġcan": 81595,
    "ĠV": 132932,
    "erv": 62440,
    "pr": 61125,
    "Ġun": 6585,
    "row": 94887,
    "ber": 73568,
    "Ġdo": 134364,
    "ll": 134157,
    "Ġel": 116713,
    "Ġself": 133292,
    "ated": 87824,
    "ary": 129718,
    "Ġ.": 36256,
    "']": 110110,
    "ud": 85367,
    "Ġen": 58212,
    "ĠTh": 64957,
    "ĠĠĠĠĠĠĠĠĠĠĠĠĠĠĠĠĠĠĠĠĠĠĠ": 128593,
    "te": 55030,
    "_c": 38361,
    "uct": 68579,
    "Ġab": 48597,
    "ork": 26135,
    ".get": 73806,
    "Ġ#": 140342,
    "aw": 124910,
    "ress": 54961,
    "ob": 87678,
    "Name": 66929,
    "app": 118617,
    "['": 52620,
    "Ġall": 48230,
    "ory": 103223,
    "ition": 94462,
    "ance": 32794,
    "ear": 104743,
    "Ġcont": 77784,
    "vent": 116691,
    "ia": 66504,
    "Ġwill": 141633,
    "IN": 62331,
    "ĠĠĠĠĠĠĠĠĠ": 115924,
    "return": 25586,
    "Ġ</": 64085,
    "data": 7069,
    ")ĊĊ": 135740,
    "Re": 2714,
    "ple": 106219,
    "ild": 20009,
    "ther": 149145,
    "Ġyour": 25431,
    "\"Ċ": 26333,
    "($": 14537,
    "Ġout": 37975,
    "),": 62538,
    "Ġhas": 47045,
    "String": 87608,
    "so": 9744,
    "Ġup": 86028,
    "ax": 73115,
    "Ġdef": 143529,
    "Ġbo": 42896,
    "ge": 124274,
    "alse": 16251,
    "ON": 147975,
    "per": 89308,
    "ich": 140302,
    "Ġbut": 142281,
    "ĠĊ": 7639,
    "Ġ_": 31605,
    "_m": 35618,
    "add": 6127,
    "quest": 122065,
    "odel": 48652,
    "self": 135557,
    "ery": 73834,
    "ft": 118622,
    "ens": 9369,
    "////": 119877,
    "ake": 37941,
    ".C": 36418,
    "Ġgo": 143510,
    "Ġfunction": 16225,
    "ĠK": 73597,
    "ivate": 122464,
    "Ġim": 40673,
    "Ġconst": 131865,
    ".t": 98623,
    "Ġ*/Ċ": 37035,
    ");čĊ": 33049,
    "Ġvoid": 147200,
    "Ġset": 135594,
    "ĠSystem": 29823,
    "cri": 84358,
    "()Ċ": 131171,
    "li": 48647,
    "ĉif": 20207,
    ".m": 9406,
    "ally": 116645,
    "set": 133258,
    "ep": 147704,
    "âĢĻs": 131543,
    "bo": 86872,
    "def": 132178,
    "',Ċ": 79073,
    "Ġme": 58607,
    "Ġ!": 127220,
    "atch": 87388,
    "\">": 147104,
    "\",Ċ": 12101,
    "ec": 18891,
    "ĠIn": 134578,
    "ph": 110637,
    "Ġ|": 64364,
    "_f": 114155,
    "Ġvar": 11268,
    "ence": 49125,
    "Id": 12915,
    "ree": 48511,
    "ink": 119215,
    "lect": 46676,
    "ug": 129915,
    "eth": 18887,
    "Ġelse": 100859,
    "----------------": 138002,
    "cont": 138976,
    "Ġso": 75744,
    "atic": 114951,
    "Ġlo": 54752,
    "pro": 145320,
    "ton": 37318,
    "ss": 31808,
    "own": 113721,
    "abel": 79847,
    "oint": 35079,
    "ous": 119550,
    "eld": 150207,
    "ST": 5548,
    "The": 71059,
    "ĠĠĠĠĠĠĠĠĠĠĠĠĠĠĠĠĠĠĠĠĠĠĠĠĠĠĠĠĠĠĠĠ": 121533,
    "RE": 122023,
    "\":": 107218,
    "olor": 112769,
    "tp": 109035,
    "eg": 53677,
    "key": 107786,
    "ude": 120672,
    "ĠSt": 114534,
    "ound": 22766,
    "Ġar": 23198,
    "\");Ċ": 19237,
    "ener": 23078,
    "ser": 86947,
    "bject": 137063,
    "essage": 114637,
    "fer": 27506,
    "Ġmore": 9749,
    "ations": 20586,
    "ents": 54404,
    "Ġhis": 82504,
    "Ġthey": 35187,
    ".S": 18356,
    "ĠY": 93046,
    "use": 57030,
    "ne": 86178,
    "ish": 47183,
    "old": 18156,
    "_d": 93980,
    "io": 150837,
    "ield": 89541,
    "Ġper": 28755,
    "Cont": 144405,
    "ings": 151097,
    "####": 79879,
    "Ġdata": 21902,
    "Ġsa": 4847,
    "ef": 52321,
    "fo": 62309,
    "Ġone": 93276,
    "eng": 134213,
    "Ġdis": 104654,
    "AT": 84514,
    "Ġname": 92087,
    "Ġtrue": 99213,
    "val": 59290,
    "led": 72334,
    ".f": 124878,
    "Ġne": 132494,
    "Ġend": 72109,
    ".T": 24740,
    "cre": 80112,
    "ark": 117784,
    "log": 102927,
    "Ex": 115621,
    "error": 7684,
    "_id": 5508,
    "urre": 15476,
    "ange": 29179,
    "Ġnull": 25307,
    "rray": 68730,
    "Ġmy": 93379,
    "pan": 83718,
    "ict": 2952,
    "ator": 49540,
    "View": 121011,
    "List": 16126,
    "ĉreturn": 63882,
    "âĢĿ": 25280,
    "Ġpre": 59620,
    "Ġx": 41753,
    "clude": 4822,
    "arg": 117372,
    "ov": 109380,
    ".h": 2556,
    "Ġ>": 69311,
    "Ġtheir": 149926,
    "')": 143037,
    "irst": 112148,
    "ick": 6339,
    "gh": 42167,
    "LE": 45917,
    "OR": 7949,
    "Ġprivate": 110625,
    "tem": 108549,
    "čĊčĊ": 78764,
    "user": 8506,
    "Ġ)": 113876,
    "com": 54382,
    ".A": 108792,
    "\";Ċ": 94862,
    "Ġid": 149313,
    "read": 51824,
    "Ġwho": 121574,
    "_b": 141573,
    "\">Ċ": 129176,
    "Ġtime": 139609,
    "Ġman": 122234,
    "ry": 130306,
    "========": 49535,
    "roup": 110200,
    "rop": 113308,
    "public": 100918,
    "vel": 134372,
    "umber": 112707,
    "ble": 79461,
    "Ġwhich": 150822,
    "****************": 101711,
    "Ġany": 127842,
    "Ġfalse": 60827,
    "we": 49377,
    "Ġvalue": 23442,
    "Ġli": 106557,
    "\")": 56085,
    "nder": 91380,
    "gr": 14865,
    "Ġno": 36358,
    "param": 26305,
    "fig": 4271,
    ".com": 25861,
    "Ġapp": 94136,
    "_l": 57540,
    "ions": 102573,
    ".D": 72230,
    "ĠCh": 85238,
    "Ġabout": 41824,
    "Ġadd": 66289,
    "Ġsu": 8648,
    "Ġstring": 110129,
    "ID": 24981,
    "Ġover": 107700,
    "string": 51443,
    ".l": 115963,
    "ource": 62042,
    "_C": 44062,
    "]Ċ": 139093,
    "Ġqu": 149593,
    "ĠString": 59966,
    "ca": 150501,
    "SE": 55775,
    "Ġro": 52138,
    "sh": 18160,
    "ual": 119491,
    "Type": 100932,
    "son": 149070,
    "new": 46298,
    "ern": 98307,
    "Ġag": 55857,
    "AR": 120757,
    "];Ċ": 40433,
    "].": 150081,
    "Ġ?": 45379,
    "ical": 33035,
    "Ġdes": 8782,
    "uth": 66052,
    "ix": 136813,
    "ays": 46208,
    "Ġtype": 59687,
    "'t": 77499,
    "ault": 80817,
    "Ġinter": 14468,
    "var": 57895,
    ".b": 31569,
    "Ġpart": 15395,
    ".d": 6353,
    "urrent": 12926,
    "IT": 58809,
    "EN": 146689,
    "enc": 17053,
    "(f": 75233,
    "ra": 34054,
    "value": 98974,
    "cho": 124517,
    "utton": 117622,
    "ose": 120097,
    "Ġ!=": 23074,
    "ater": 149488,
    "Ã©": 30505,
    "reate": 5660,
    "oll": 107844,
    "pos": 76654,
    "yle": 147989,
    "ng": 141513,
    "AL": 39048,
    "using": 9052,
    "ames": 62617,
    "Ġ{čĊ": 116237,
    "ates": 128595,
    "ely": 102939,
    "Ġwork": 75191,
    "Ġem": 66223,
    "inal": 99083,
    "Ġsp": 129970,
    "Ġwhen": 64680,
    ".set": 99191,
    "ĠĠĠĠĠĠ": 62226,
    "):Ċ": 3310,
    "to": 82396,
    "quire": 94853,
    "indow": 34171,
    "lement": 111110,
    "pect": 31238,
    "ash": 128194,
    "[i": 98416,
    "Ġuse": 89820,
    ".F": 98863,
    "pec": 44879,
    "Ġad": 128887,
    "ove": 133549,
    "ception": 18745,
    "ength": 145557,
    "include": 4406,
    "ader": 19014,
    "ĠĠĠĠĠĠĠĠĠĠĠĠĠĠĠĠĠĠĠĠĠĠĠĠĠĠĠ": 21434,
    "atus": 15737,
    "Th": 34308,
    "itle": 86370,
    "rit": 111578,
    "void": 80823,
    "().": 23756,
    "(Ċ": 111702,
    "Ġoff": 117450,
    "Ġother": 16742,
    "Ġ&&": 46278,
    "';Ċ": 106864,
    "ms": 93189,
    "Ġbeen": 28666,
    "Ġte": 33702,
    "ml": 73515,
    "co": 15951,
    "nc": 87135,
    "ervice": 98250,
    "Ġ%": 27604,
    "**Ċ": 101625,
    "ann": 136680,
    "ade": 117526,
    "ĊĊĊĊ": 14639,
    "lock": 33424,
    "const": 10020,
    "ponse": 21082,
    "Ġsup": 79197,
    "++": 2080,
    "date": 53435,
    "Ġacc": 118227,
    "Ġhad": 93173,
    "Ġbu": 87606,
    "ĠRe": 51074,
    "Ġwere": 116517,
    "Ġfile": 41978,
    "Ġwould": 112067,
    "ĠâĢľ": 115829,
    "ven": 7505,
    "iss": 35046,
    "Ġour": 10771,
    "class": 55385,
    "raw": 96795,
    "Ġyear": 5439,
    "Data": 135668,
    "Ġval": 17880,
    "Ġsome": 98945,
    "fter": 88959,
    "ys": 138592,
    "Ġ///": 132192,
    "round": 19416,
    "view": 20488,
    "Ġpe": 87088,
    "Ġthere": 6598,
    "Ġsaid": 97164,
    "du": 33693,
    "of": 98316,
    "line": 62774,
    "/*": 14892,
    "duct": 53385,
    "Ġher": 59933,
    "ĠĠĠĠĠĠĠĠĠĠĠĠĠ": 17106,
    "Res": 40196,
    "Ġco": 108962,
    "Ġcomm": 48290,
    "ise": 51170,
    "min": 101948,
    "ĠĠĠĠĊ": 6681,
    "#include": 87365,
    "ethod": 107994,
    ".P": 116618,
    "ute": 31150,
    "Ġass": 94712,
    "Int": 112340,
    "ask": 62972,
    "loc": 17754,
    "Ġlike": 488,
    "ody": 12098,
    "Ġlet": 11333,
    "load": 49765,
    "Ġam": 133543,
    "rol": 92737,
    "Ġgr": 136101,
    "yp": 102368,
    "Ġalso": 44500,
    "ĠIt": 64907,
    "url": 100255,
    "ific": 77835,
    "ors": 131810,
    "_P": 134614,
    "_n": 121444,
    "igh": 39444,
    "Ġthan": 77708,
    "Com": 82217,
    "AN": 57092,
    "UL": 78955,
    "ating": 90710,
    "ĠThis": 128878,
    "ref": 136400,
    "_S": 10422,
    "Ġstatic": 76988,
    "roll": 2701,
    "Ġjust": 142675,
    "Ġresult": 148306,
    "ian": 33267,
    "idth": 115579,
    "Ġthem": 90977,
    "));Ċ": 76103,
    "der": 25486,
    "reak": 39610,
    "Con": 75761,
    "://": 448,
    "ule": 292,
    "...": 31696,
    "arch": 123080,
    "ement": 106907,
    "Ġ<<": 136305,
    "ush": 100685,
    "ense": 121968,
    "arr": 145323,
    "Ġinto": 150324,
    "cess": 31698,
    "amp": 110478,
    "ied": 146421,
    "ument": 151152,
    "Ġ\\": 32895,
    "],": 97446,
    "wo": 45876,
    "als": 44807,
    "Ġwhat": 55817,
    "anc": 26385,
    "Value": 77177,
    "='": 146952,
    "olum": 94326,
    "Ġpos": 127201,
    "ages": 143048,
    "ayer": 80060,
    "Ġsc": 47859,
    "ues": 76417,
    "\")Ċ": 129811,
    "_T": 22902,
    "Ġlist": 126791,
    "(s": 24932,
    "Ġcase": 34251,
    "Ch": 64540,
    "ĉĉĉĉĉ": 79354,
    "////////": 39595,
    "ponent": 44524,
    "Ġz": 18107,
    "Ġkn": 134444,
    "let": 66047,
    "DE": 33724,
    "red": 77332,
    "Ġfe": 53081,
    "Ġ},Ċ": 138899,
    "Ġ,": 47694,
    "(t": 137339,
    "Ġfirst": 73813,
    "');Ċ": 68401,
    "word": 67872,
    "Ġimport": 145248,
    "Ġact": 35118,
    "Ġchar": 127423,
    "CT": 58661,
    "ĠTr": 118178,
    "ople": 78541,
    "={": 66724,
    "ĉf": 42878,
    "ient": 124665,
    "cent": 124136,
    ".j": 27766,
    "lection": 53542,
    "))Ċ": 96337,
    "Ġonly": 129188,
    "Ġprint": 129298,
    "mer": 58267,
    ".W": 68492,
    "ock": 99893,
    "Ġ--": 118941,
    "Text": 30300,
    "Ġop": 123778,
    "ank": 119656,
    "Ġits": 51535,
    "Ġback": 147084,
    "[\"": 21416,
    "Ġneed": 101396,
    "Ġcl": 41470,
    "Ġsub": 7625,
    "Ġla": 105492,
    "((": 81338,
    ".\"": 62383,
    "Object": 29546,
    "Ġstart": 85083,
    "file": 107610,
    "(self": 100075,
    "ner": 140051,
    "ey": 64675,
    "Ġuser": 87059,
    "Ġent": 20325,
    "ĠCom": 55596,
    "its": 46396,
    "ĠCon": 89182,
    "ouble": 104212,
    "ower": 87791,
    "item": 12269,
    "very": 37441,
    "ĠWe": 71522,
    "lick": 130542,
    "ĠQ": 106496,
    "php": 37597,
    "ttp": 81415,
    "':": 48563,
    "ics": 42581,
    "Ġunder": 42553,
    "Ġ*Ċ": 56425,
    ".L": 6591,
    ");": 59692,
    "ices": 17491,
    "Ġreg": 48180,
    ")čĊ": 150426,
    "ĉpublic": 105087,
    "SS": 51155,
    "Ġthen": 122415,
    "reat": 87237,
    "ious": 8702,
    ".G": 27294,
    "ek": 119131,
    "irect": 31239,
    "heck": 12082,
    "cript": 113878,
    "ning": 127621,
    "ĠUn": 96784,
    "Ġmay": 45260,
    "ĠWh": 59805,
    "Bo": 146528,
    "Item": 5538,
    "struct": 79748,
    ".st": 47814,
    "ream": 12358,
    "ible": 3627,
    "loat": 63973,
    "Ġorg": 2695,
    "und": 132733,
    "sum": 23835,
    "_in": 137832,
    "../": 115365,
    "_M": 76261,
    "Ġhow": 117640,
    "rite": 24121,
    "'Ċ": 120684,
    "To": 113547,
    "ww": 25141,
    "Ġpeople": 149936,
    "index": 56412,
    ".n": 41106,
    "http": 77592,
    "(m": 99987,
    "ector": 135418,
    "Ġind": 51598,
    "Ġjav": 123306,
    "],Ċ": 19756,
    "ĠHe": 116453,
    "_st": 103547,
    "ful": 97927,
    "ole": 57553,
    "){Ċ": 130794,
    "Ġshould": 112346,
    "opy": 118014,
    "elp": 131224,
    "ier": 131710,
    "_name": 7274,
    "erson": 100044,
    "ION": 14894,
    "ote": 25373,
    "Ġtest": 7597,
    "Ġbet": 101690,
    "rror": 90912,
    "ular": 915,
    "ãĢ": 10639,
    "ĠÐ": 126609,
    "bs": 36205,
    "ting": 22219,
    "Ġmake": 122888,
    "Tr": 151201,
    "Ġafter": 108348,
    "arget": 88957,
    "RO": 141747,
    "olumn": 79766,
    "rc": 37675,
    "_re": 12197,
    "define": 118971,
    "Ġright": 144937,
    "right": 36958,
    "day": 6639,
    "Ġlong": 147866,
    "[]": 1346,
    "(p": 33558,
    "td": 41182,
    "cond": 28568,
    "ĠPro": 24524,
    "Ġrem": 71121,
    "ptions": 136609,
    "vid": 10398,
    ".g": 95081,
    "Ġext": 80246,
    "Ġ__": 79165,
    "')Ċ": 116737,
    "pace": 132410,
    "mp": 102844,
    "Ġmin": 103047,
    "stance": 124824,
    "air": 118817,
    "action": 28762,
    "wh": 148888,
    "type": 113580,
    "util": 49238,
    "ait": 138312,
    "<?": 86065,
    "IC": 75534,
    "text": 91160,
    "Ġph": 150656,
    "Ġfl": 10277,
    ".M": 64429,
    "ccess": 139691,
    "br": 20330,
    "fore": 40715,
    "ersion": 52150,
    "),Ċ": 145282,
    ".re": 46058,
    "ateg": 54004,
    "Ġloc": 102892,
    "ins": 100471,
    "-s": 756,
    "trib": 92812,
    "ĠInt": 13269,
    "Ġarray": 1247,
    ",\"": 137678,
    "Pro": 66097,
    "(c": 36180,
    "ession": 18272,
    ">ĊĊ": 102868,
    "Ġshe": 72975,
    "\"]": 24113,
    "aph": 18132,
    "Ġexp": 45584,
    "erty": 36139,
    "ĠSe": 141313,
    "Ġpar": 45165,
    "unc": 84448,
    "ET": 93229,
    "Ġread": 116742,
    "print": 89034,
    "Ġrel": 47332,
    "Ġform": 12074,
    "Ġdr": 81989,
    "Exception": 65630,
    "input": 54712,
    "Ġtrans": 31008,
    "########": 121936,
    "order": 27465,
    "By": 91001,
    "Ġaw": 124791,
    "ities": 125353,
    "uff": 91313,
    "play": 76775,
    ".add": 30825,
    "ĠâĢĵ": 109071,
    "Ġwant": 125713,
    "Ġcomp": 39370,
    "ments": 101504,
    "Ġ||": 35950,
    "az": 18743,
    "be": 137643,
    "Ġnumber": 100009,
    "Ġrequire": 37970,
    "ĠEx": 102350,
    "Ġcol": 73343,
    "Ġkey": 94404,
    "ember": 61355,
    "Ġtwo": 58161,
    "Ġsize": 31023,
    "Ġwhere": 85308,
    "UT": 18482,
    "result": 79963,
    "ĠĠĠĠĠĠĠĠĠĠĠĠĠĠĠĠĠĠĠĠĠĠĠĠĠĠĠĠĠĠĠ": 6811,
    "ough": 62189,
    "orld": 16677,
    "ood": 132905,
    "uch": 76502,
    "ative": 14549,
    "ger": 120868,
    "arent": 36407,
    "Ġ/*": 126931,
    "Ġarg": 12583,
    "Ġwhile": 114350,
    "(this": 150226,
    "Ġrec": 90846,
    "Ġdif": 57241,
    "State": 7989,
    "Ġspec": 79939,
    "ride": 79624,
    "_F": 68265,
    "Ġlook": 32654,
    "AM": 98527,
    "ility": 108118,
    "eter": 70540,
    "âĢĻt": 58268,
    "ĊĊĊ": 131010,
    "ayout": 416,
    "--------------------------------": 149989,
    "ager": 61331,
    "Ġcould": 83140,
    "Ġbr": 37601,
    "ends": 121752,
    "ures": 38217,
    "Ġknow": 110092,
    "ets": 106665,
    "ĠIf": 6001,
    "ĠSh": 137227,
    ".w": 15072,
    "back": 121692,
    "Ġser": 76527,
    "Ġ+=": 130458,
    "Ġfr": 93213,
    "());Ċ": 47324,
    "Ġhand": 141527,
    "Ind": 63625,
    "ULL": 85720,
    "Im": 4507,
    "();ĊĊ": 19394,
    "Ġmost": 125492,
    "Ġtry": 105520,
    "Ġnow": 32668,
    "rough": 51911,
    ">čĊ": 118125,
    "ackage": 146062,
    "Ġhim": 48679,
    "._": 39256,
    "ify": 111621,
    "Ġbreak": 1724,
    "Ġ);Ċ": 75403,
    "ren": 149541,
    "#define": 130186,
    "itt": 93284,
    "Ġap": 62761,
    "ĉc": 63581,
    "(n": 95691,
    "ĠYou": 57450,
    ":ĊĊ": 64063,
    "-m": 54088,
    "Ġevery": 115772,
    "ustom": 145644,
    "lient": 72540,
    "ocument": 58682,
    "cription": 74932,
    "Error": 66022,
    "-b": 14225,
    "Ð¾": 83424,
    "][": 67391,
    "trans": 63240,
    "Ġpoint": 110704,
    "Ġstd": 64324,
    "Ġfil": 60077,
    "Time": 5036,
    "Ġmod": 42143,
    "Ġ->": 62949,
    "Ġerror": 138703,
    "ah": 147907,
    "Ġtext": 52534,
    "roller": 145238,
    "lose": 90776,
    "ql": 35705,
    "Ġpol": 106660,
    "></": 89165,
    "Ġshow": 137893,
    "User": 147174,
    "ased": 119879,
    "Ġ{ĊĊ": 113513,
    "Ġfind": 104741,
    "Ð°": 21940,
    "ED": 137958,
    "span": 72960,
    "enu": 106210,
    "Ġcurrent": 125139,
    "Ġused": 97587,
    "cept": 115569,
    "clud": 112511,
    "Ġplay": 17196,
    "Ġlog": 31006,
    "ution": 148052,
    "fl": 35383,
    "Ġsee": 138086,
    "indows": 123600,
    "Ġhelp": 45689,
    "Ġthese": 89433,
    "Ġpass": 72993,
    "Ġdown": 130360,
    "Ġeven": 117677,
    "ason": 37454,
    "uild": 71327,
    "from": 41228,
    "(d": 8366,
    "Ġbl": 65877,
    "label": 63048,
    "else": 77988,
    "Ðµ": 12968,
    "Ġ(!": 101575,
    "ized": 49347,
    "(),": 33419,
    "Ġob": 24829,
    "Ġitem": 115018,
    "ump": 1978,
    "UR": 9783,
    "orn": 64504,
    "Ġdon": 143095,
    "Se": 69901,
    "man": 23015,
    "ample": 53597,
    "tn": 12796,
    "================": 52292,
    "He": 82459,
    "gram": 132779,
    "Ġdid": 77287,
    "wn": 8418,
    "_h": 70619,
    "iver": 11221,
    "Ġsm": 18360,
    "Ġthrough": 25017,
    "ĠAn": 891,
    "che": 51839,
    "Ġinv": 87759,
    "ouse": 50481,
    "Ġes": 57425,
    "ĠNew": 100844,
    "export": 106139,
    "mary": 37554,
    "uto": 44719,
    "ler": 111582,
    "Ġlast": 111995,
    "Ġevent": 115852,
    "try": 31857,
    "ï¼": 13311,
    "ily": 80107,
    "igned": 106469,
    "ines": 59701,
    "ollow": 72205,
    "icense": 96904,
    "sole": 116102,
    "lear": 56621,
    "(int": 118284,
    "Ġagain": 129679,
    "Ġhigh": 3178,
    "html": 24100,
    "Index": 6894,
    "uthor": 26556,
    "Ġ/**Ċ": 40470,
    "Ġline": 86553,
    "Event": 91140,
    "_D": 103395,
    "Ġdoes": 79022,
    "itial": 119747,
    "Ġcr": 123353,
    "ars": 145042,
    "Ġtem": 66211,
    "cause": 37839,
    "face": 79648,
    "Ġ`": 2148,
    "_A": 26272,
    "Button": 17838,
    "ature": 97412,
    "ected": 60354,
    "ES": 72387,
    "ister": 99561,
    "ĉĊ": 38215,
    "Ġbefore": 123174,
    "ale": 49481,
    "other": 86843,
    "Ġbecause": 27776,
    "roid": 30448,
    "Ġed": 116288,
    "ik": 93085,
    "reg": 11643,
    "ĠDe": 74930,
    "Ġdist": 39137,
    "},Ċ": 36124,
    "Ġstate": 30806,
    "Ġcons": 65876,
    "rint": 90770,
    "att": 3756,
    "Ġhere": 22941,
    "ined": 60217,
    "Ġfinal": 135166,
    "Ġ\"\"": 151103,
    "Key": 137957,
    "LO": 142199,
    "Ġdel": 150597,
    "pty": 78833,
    "thing": 19701,
    "ĠAnd": 69219,
    "Ġrun": 123095,
    "ĠX": 22003,
    "ym": 23099,
    ".app": 72409,
    "Ġvery": 68402,
    "ces": 8987,
    "_N": 28051,
    "ared": 150758,
    "ward": 105525,
    "list": 14408,
    "ited": 51068,
    "olog": 55933,
    "itch": 94265,
    "Box": 55862,
    "ife": 128036,
    "Ġac": 117809,
    "Ġmodel": 78710,
    "Ġmon": 41165,
    "Ġway": 64572,
    "lete": 33757,
    "Ġcall": 3003,
    "Ġatt": 112353,
    "Ġcal": 886,
    "vert": 82603,
    "Ġdec": 40850,
    "lease": 15915,
    "oun": 3594,
    "Ġ});Ċ": 144973,
    "fr": 80870,
    "formation": 59689,
    "etail": 30014,
    "Ġnum": 26754,
    "aj": 136484,
    "query": 14255,
    "Ġwell": 63468,
    "Ġobject": 39544,
    "ĠAs": 104564,
    "Ġyears": 118353,
    "Color": 141254,
    "IS": 125158,
    "Ġdefault": 1228,
    "Wh": 130880,
    "Ġins": 77158,
    "aint": 11314,
    "Ġjava": 68160,
    "Ġsim": 102699,
    "ĠAr": 126281,
    "mon": 76027,
    "til": 21857,
    "();čĊ": 101694,
    "):": 112216,
    "Set": 141253,
    "atter": 148631,
    "Ġview": 88516,
    "Ġpres": 86377,
    "array": 22534,
    "We": 103210,
    "At": 57164,
    "Ġbel": 140586,
    "Ġmany": 76611,
    "Man": 150994,
    "ender": 25837,
    "Ġbeing": 105872,
    "Ġgood": 67888,
    "ĉĉĉĉĉĉ": 79846,
    "ational": 120990,
    "ware": 27104,
    ".log": 64815,
    "{čĊ": 111717,
    "Ġusing": 56392,
    "_B": 81972,
    "Ġ:=": 138285,
    "_w": 40663,
    "ists": 20106,
    "lish": 146138,
    "Ġstud": 26725,
    "ĠAl": 24586,
    "Ġgu": 147626,
    "config": 122644,
    "uring": 143618,
    "time": 134368,
    "oken": 30254,
    "amespace": 62487,
    "Ġrequest": 33329,
    "Ġchild": 55130,
    "ĠÃ": 33004,
    "lob": 2258,
    "Ġparam": 45620,
    "Ġ}čĊ": 47742,
    "Ġecho": 132671,
    "function": 31879,
    "********************************": 58599,
    "ps": 59626,
    "Element": 5280,
    "alk": 41553,
    "lication": 32037,
    "by": 91869,
    "Size": 101605,
    "rawing": 112952,
    "Ġperson": 147437,
    "ĠĠĠĠĠĠĠĠĠĠĠĠĠĠĠĠĠ": 57402,
    "\\n": 113836,
    "object": 128512,
    "ince": 60295,
    "En": 8762,
    "File": 12955,
    "uf": 89471,
    "ffect": 1881,
    "AC": 43145,
    "Ġstyle": 98866,
    "summary": 1494,
    "Ġque": 72715,
    "_r": 36819,
    "Ġ($": 29659,
    "Model": 98568,
    "ident": 125366,
    "Ġmethod": 10468,
    "IL": 129606,
    "ott": 144062,
    "less": 106705,
    "ING": 21947,
    "Ġ()": 144964,
    "Ġexpect": 40398,
    "ync": 10093,
    "package": 65336,
    "urs": 122398,
    "Ġprot": 42456,
    "./": 88652,
    "pre": 1717,
    "Ġ)Ċ": 49002,
    "ma": 23740,
    "Ġsur": 116894,
    "Ġfound": 11129,
    "Info": 8370,
    "par": 125091,
    "imes": 150346,
    ".e": 28766,
    "ains": 12472,
    "Ġpost": 21765,
    "-d": 41818,
    "olean": 55341,
    "Ġsl": 111526,
    "PE": 24661,
    "Ġsuch": 18663,
    "select": 124151,
    "ainer": 127395,
    "Ġthink": 150678,
    "Ġdiffer": 11353,
    ".r": 30312,
    "/**Ċ": 32147,
    "FF": 66304,
    "ool": 103236,
    "plate": 47241,
    "qual": 25356,
    "ĠFor": 146030,
    "Ġmuch": 53634,
    "uc": 38667,
    "(new": 38759,
    "odule": 72309,
    "Ġsom": 65889,
    "Ġhttp": 146917,
    "ĠList": 93180,
    "Ġcount": 115622,
    "Ġinst": 147957,
    "char": 89791,
    "mit": 148821,
    ".id": 93811,
    "aking": 107675,
    "Ġgener": 68678,
    "px": 82718,
    "vice": 118314,
    "_data": 103998,
    "ĠNULL": 90746,
    "}čĊ": 142160,
    "idd": 8977,
    "ãĢĤ": 16810,
    "Ġmed": 114634,
    "org": 66059,
    "ider": 115656,
    "ache": 116151,
    "work": 75453,
    "Ġcheck": 30061,
    "ween": 60606,
    "Ġ((": 27689,
    "the": 150256,
    "ants": 19423,
    "><": 19648,
    ".B": 43890,
    "-c": 37420,
    "Ġopen": 22817,
    "Ġest": 117892,
    "ĠĠĠĠĠĠĠĠĊ": 21136,
    "Ġnext": 62771,
    "IM": 29612,
    "ÑĤ": 72893,
    "OT": 51645,
    "Ã³": 84685,
    "Ġfollow": 148995,
    "content": 32039,
    "ĠĠĠĠĠĠĠĠĠĠĠĠ": 96899,
    "Ġinclud": 149978,
    "HE": 130885,
    "ĠRes": 130468,
    "Ġhref": 139088,
    "Ð¸": 143075,
    "Ġcar": 140871,
    "ypes": 127537,
    "image": 54754,
    "Un": 143050,
    "Ġbool": 20374,
    "AD": 52283,
    "Ġgame": 127930,
    ".Form": 184,
    "rows": 42667,
    "*/": 35384,
    "velop": 109989,
    ".Drawing": 54123,
    "Ġpath": 104518,
    "ision": 110363,
    "Ġeach": 17983,
    "ĠPl": 111199,
    "_type": 12626,
    "Path": 42958,
    "nection": 89329,
    "Ġav": 66564,
    "').": 139674,
    "Ġsupport": 33604,
    "ENT": 112254,
    "rem": 69528,
    "\").": 54604,
    "Ġown": 254,
    "Ġcor": 7361,
    "count": 65790,
    "miss": 4880,
    "ually": 102555,
    "Ġmem": 68167,
    "std": 116246,
    "ience": 138876,
    "search": 48033,
    "\"ĊĊ": 37257,
    "Form": 111850,
    "Ġsex": 150267,
    "ename": 109325,
    "Ġsign": 87229,
    "Ġet": 18427,
    "ĠĠĠĠĠĠĠĠĠĠ": 44785,
    "','": 15644,
    "ĠApp": 3382,
    "Ġthose": 28448,
    "off": 26652,
    "Ġerr": 7273,
    "Ġsystem": 3339,
    "Ġbest": 122978,
    "code": 121891,
    "Ġsame": 80452,
    "Ġdi": 5491,
    "uss": 130330,
    "Ġcreate": 87560,
    "ather": 1363,
    "Array": 29120,
    ".in": 110559,
    "fe": 33060,
    "Service": 20024,
    "UN": 22124,
    "ats": 82711,
    "ĠZ": 150891,
    "alth": 138262,
    "Ġmade": 125813,
    "true": 57432,
    "AB": 108477,
    "Ġmark": 141305,
    "rid": 104430,
    "ified": 39597,
    ",čĊ": 9164,
    "yn": 78695,
    "press": 118829,
    "Ġgroup": 38973,
    "Ġfin": 19729,
    "ĠLicense": 61246,
    "Field": 76469,
    "eger": 115001,
    "Ġworld": 87740,
    "iness": 17963,
    "ty": 44617,
    "Ġprocess": 105987,
    "(b": 9298,
    "Ġcre": 5754,
    "arn": 128508,
    "ives": 4734,
    "Ġmain": 99313,
    "ideo": 112362,
    "_g": 106110,
    "AG": 115893,
    "valid": 120601,
    "img": 105518,
    "PI": 27981,
    "Ġcolor": 51845,
    "Ġreport": 63141,
    "Ġtake": 98236,
    "rib": 19570,
    "OM": 19115,
    "Ġday": 48747,
    "Request": 3340,
    "Ġsk": 125090,
    "bers": 84710,
    "ĉs": 44149,
    ".Add": 76268,
    "oot": 126903,
    "Image": 135428,
    "Ġcomple": 80480,
    "ollection": 141419,
    "Ġtop": 3363,
    "Ġfree": 62905,
    "AS": 126947,
    "De": 36761,
    "ĠOn": 110403,
    "IG": 107243,
    "eta": 46062,
    "Date": 77860,
    "Ġaction": 145437,
    "Over": 93026,
    "itor": 124656,
    "ĠĠĠĠĠĠĠĠĠĠĠĠĠĠĠĠĠĠĠĠĠĠĠĠĠĠĠĠĠĠĠĠĠĠĠ": 129995,
    "not": 108112,
    "Ġindex": 14087,
    "her": 81566,
    "icon": 102992,
    "On": 124468,
    ";čĊčĊ": 108938,
    "ivity": 58767,
    "mand": 107539,
    ".Windows": 144383,
    "OL": 68677,
    "Ġreal": 150796,
    "Ġmax": 69867,
    "land": 120071,
    "....": 130914,
    "raph": 129141,
    "Ġbuild": 138768,
    "leg": 23860,
    "assword": 51445,
    "?ĊĊ": 23850,
    "âĢ¦": 147620,
    "ook": 47280,
    "uck": 109508,
    "Ġmessage": 121448,
    "test": 11086,
    "ivers": 110375,
    "Ġinput": 98962,
    "Ġart": 5403,
    "Ġbetween": 145574,
    "Get": 137954,
    "enter": 121184,
    "ground": 79157,
    "ene": 91931,
    "Ã¡": 111281,
    ".length": 27874,
    "Node": 25913,
    "(i": 5202,
    "Class": 142186,
    "for": 137762,
    "ĠâĢĶ": 88207,
    "ten": 33006,
    "oin": 139911,
    "Ġke": 145486,
    "ui": 13911,
    "ĠIN": 109498,
    "Ġtable": 122358,
    "sub": 105676,
    "ĠLe": 145087,
    "Ġhead": 139114,
    "Ġmust": 24287,
    "////////////////": 130967,
    ".util": 140461,
    "Context": 78604,
    "Ġorder": 111186,
    "Ġmov": 136706,
    "over": 32973,
    "Ġcontin": 26024,
    "Ġsay": 35951,
    "static": 105850,
    ".Text": 58937,
    "ĠclassName": 144531,
    "pany": 35920,
    "Ġter": 113396,
    "head": 82347,
    "rg": 107619,
    "Ġproduct": 72377,
    "This": 41195,
    ".âĢĿ": 111228,
    "ĠBut": 129179,
    "loy": 26149,
    "Ġdouble": 144752,
    "sg": 53208,
    "Ġplace": 39441,
    ".x": 45125,
    "message": 58058,
    "Ġinformation": 47781,
    "private": 146148,
    "Ġoper": 58224,
    "ced": 129484,
    "db": 150626,
    "\"></": 45383,
    "Param": 60738,
    "icle": 147525,
    "Ġweek": 149466,
    "Ġprop": 52942,
    "table": 53399,
    "idget": 135579,
    "place": 11617,
    "Prop": 27080,
    "ĠAll": 43780,
    "els": 91295,
    "box": 41484,
    ".ĊĊĊĊ": 129286,
    ".R": 47360,
    "ĠTo": 15730,
    "iter": 59069,
    "Sh": 137313,
    "uration": 42274,
    "older": 108411,
    "_list": 41154,
    "come": 124489,
    "Ġsw": 36797,
    "ization": 138171,
    "ĉfor": 147489,
    "bl": 123638,
    "Ġprogram": 135844,
    "(e": 115794,
    "ape": 146298,
    "check": 105656,
    ".Forms": 136826,
    "Ġund": 112965,
    "ategory": 113950,
    "ags": 40140,
    "Ġresponse": 151030,
    "US": 58026,
    "request": 24501,
    "Ġstruct": 54586,
    "escription": 68662,
    "Ġcode": 58652,
    "_H": 33525,
    "uffer": 26715,
    "Ġwithout": 12614,
    "lobal": 98178,
    "Manager": 75709,
    "ilter": 46815,
    "PO": 48620,
    "ĉthis": 49254,
    "option": 27416,
    "Ġsol": 94159,
    "Ġ===": 74526,
    "akes": 78924,
    "Controller": 140612,
    "Message": 131955,
    "Ġref": 81108,
    "ever": 149079,
    "ĠSo": 15306,
    "aining": 20251,
    ".append": 102336,
    "Ġstill": 38052,
    "Ġprovid": 107754,
    "Ġassert": 70264,
    "med": 92840,
    "Ġcap": 22721,
    "usiness": 48003,
    "Ġrep": 125455,
    "tings": 5518,
    "ved": 47388,
    ".N": 63689,
    "api": 151343,
    "OD": 15697,
    "Ġfield": 142544,
    "iven": 12245,
    "oto": 85432,
    "âĢľ": 1532,
    "col": 56195,
    "(x": 132076,
    "ght": 146927,
    "Result": 144169,
    "Code": 33961,
    ".is": 117270,
    "link": 105981,
    "Ġcour": 10409,
    "An": 23353,
    "Ġteam": 901,
    "ĉint": 104956,
    "ift": 134635,
    "Ġsecond": 128098,
    "Ġgoing": 87903,
    "Ġrange": 137491,
    "_E": 76000,
    "ness": 95727,
    "Ġfam": 115462,
    "Ġnil": 28850,
    "ĠCont": 67456,
    "ailable": 89496,
    "utes": 99236,
    "atab": 70051,
    "Ġfact": 77003,
    "Ġvis": 73138,
    "(&": 121672,
    "ĠAN": 121513,
    "Al": 135636,
    "title": 54390,
    "Ġandroid": 124276,
    "CE": 631,
    "\\\"": 120277,
    "irt": 4305,
    "Ġwrit": 12416,
    "Ð½": 82135,
    "ĉm": 135304,
    "ftware": 113585,
    "ond": 124081,
    "Ġret": 104751,
    "osition": 147096,
    "Ġhome": 129299,
    "Ġleft": 150322,
    "args": 31933,
    "meric": 73289,
    "Ġdirect": 137652,
    "oci": 37270,
    "Pl": 51933,
    "As": 19283,
    "ret": 22235,
    "ado": 137001,
    "Of": 129895,
    "chn": 130807,
    "ĠGet": 97127,
    "ee": 124366,
    "ross": 56762,
    "();": 89328,
    "____": 98320,
    ".ph": 151519,
    "It": 10481,
    "oute": 137315,
    "Ġexper": 145531,
    "chool": 136012,
    "www": 23259,
    "},": 54364,
    "Ġallow": 136787,
    "ĠÂ": 71263,
    "())": 140488,
    "size": 42001,
    "ism": 121247,
    "ai": 2223,
    "tract": 72634,
    "ane": 42460,
    "...ĊĊ": 22290,
    "context": 111315,
    "Ġbeg": 114264,
    "CH": 72504,
    "Ġpage": 133741,
    "hip": 41236,
    "no": 96303,
    "core": 150940,
    "sp": 57290,
    "Ġdifferent": 38161,
    "iable": 122594,
    "ĠMe": 15382,
    "_IN": 83212,
    "button": 7724,
    "ĠIs": 27304,
    "ervices": 77653,
    "Ġca": 78982,
    "Ġaround": 150500,
    "App": 75825,
    "ration": 20023,
    "Ġrece": 59898,
    "Ġreally": 28429,
    "Ġimage": 69779,
    "Ġtarget": 4918,
    "Ġdep": 124031,
    "opyright": 102377,
    "tra": 114040,
    "ingle": 131772,
    "ital": 99621,
    "Layout": 3634,
    "Ġboth": 126150,
    "Override": 138108,
    "arm": 15176,
    "=>": 31491,
    "aterial": 98995,
    "iled": 16062,
    "Ġput": 4962,
    "Qu": 93231,
    "ÑĢ": 93568,
    "ung": 23879,
    "map": 10152,
    "ĉĉĉĉĉĉĉĉ": 91813,
    "Ġlevel": 127172,
    "Component": 32031,
    "book": 29638,
    "creen": 9503,
    "_RE": 101247,
    "Ġconfig": 117982,
    "ãģ": 101972,
    "Or": 109436,
    ".data": 91679,
    "Ġdocument": 116175,
    "\",\"": 137236,
    "tribute": 96915,
    "ux": 63227,
    "Log": 44147,
    "ference": 113781,
    "post": 43770,
    "_e": 44315,
    "Ġlocal": 144180,
    "andom": 133938,
    "assert": 91157,
    "Val": 55715,
    "lected": 93287,
    "ina": 67266,
    "atabase": 70542,
    "Add": 87794,
    "Ġcontent": 92902,
    ".print": 124641,
    "signed": 80816,
    "ric": 123980,
    ".\"ĊĊ": 49352,
    "Ġfa": 11467,
    "!ĊĊ": 105528,
    "-f": 108398,
    "ived": 66843,
    "Ġquest": 66805,
    ".ex": 112998,
    "Ġfloat": 89078,
    "Ġdevelop": 126870,
    "Ð¾Ð": 131102,
    "Map": 55413,
    "ading": 85347,
    "Ġposs": 134600,
    "UE": 72585,
    "namespace": 35788,
    "_O": 4496,
    "ĉb": 2747,
    ".Get": 29275,
    ">(": 100131,
    "json": 102275,
    "etails": 42662,
    "Ġtoo": 71579,
    "Ġextends": 70861,
    "ĠNone": 10449,
    "Ġfore": 91441,
    "(String": 83035,
    "format": 46991,
    "Ġgreat": 6779,
    "inter": 98075,
    "cale": 110147,
    "Ñģ": 28930,
    "ron": 139581,
    "iving": 91023,
    "Ent": 40032,
    "ency": 64173,
    "xt": 90321,
    "oy": 123782,
    "Ġmonth": 131407,
    "Ġhapp": 80155,
    "Ġsuper": 59105,
    "bar": 9868,
    "default": 99973,
    "_de": 14494,
    "ords": 39423,
    "ln": 95685,
    "({Ċ": 44761,
    "ĠInd": 104042,
    "ases": 50172,
    "Ġtitle": 87091,
    "Ġcontext": 138903,
    "oh": 115715,
    "-p": 119263,
    "Em": 87797,
    "Ġmet": 59767,
    "Test": 124427,
    "Ġlife": 87373,
    "_v": 22399,
    "ĠUS": 53465,
    "UI": 59799,
    "ocation": 64702,
    "md": 149175,
    "Ġ[Ċ": 85389,
    "Ġ]": 94380,
    "sw": 41784,
    "Ġincre": 109899,
    "script": 151146,
    "ential": 570,
    "ways": 83757,
    ".de": 66084,
    "Ġsrc": 65281,
    "Ġcatch": 62231,
    "ĠAmeric": 129721,
    "//Ċ": 80158,
    "ĠĠĠĠĠĠĠĠĠĠĠĠĠĠ": 118399,
    "Ġpay": 114927,
    "plit": 90913,
    "âĢĶ": 43504,
    "Ġcoun": 141034,
    "obj": 135650,
    ".php": 3983,
    "Ġchange": 20289,
    "ething": 39555,
    "'re": 114160,
    "aster": 87374,
    "los": 30200,
    "lation": 66477,
    "ĠĠĊ": 22220,
    "Le": 48131,
    "Ã¤": 39780,
    "({": 38107,
    "ready": 109190,
    "ĠNo": 56280,
    "Ġposition": 80220,
    "Ġold": 132044,
    "Ġbook": 107161,
    "abled": 26830,
    "bug": 92358,
    "Hand": 62117,
    "};ĊĊ": 9049,
    "isplay": 17094,
    "aving": 58277,
    "Ġgover": 111663,
    "Ġversion": 126992,
    "System": 29926,
    "nect": 76392,
    "response": 44916,
    "Style": 13701,
    "Up": 50061,
    "angu": 22877,
    "Ġthree": 128491,
    "init": 70549,
    "ero": 99224,
    "Ġlaw": 110549,
    "endif": 113606,
    "Ġbase": 52703,
    "email": 103280,
    "(l": 125697,
    "_V": 123151,
    "Ġconf": 85743,
    "ATE": 10125,
    "Ġduring": 151089,
    "tes": 64066,
    "Ġconsole": 139144,
    "ĠPr": 2998,
    "Ġspe": 61147,
    "ves": 150362,
    "path": 48798,
    "ialog": 248,
    "dition": 54372,
    "_to": 114325,
    "ards": 105297,
    "Ġagainst": 146969,
    "etwork": 6348,
    "ĠPh": 31907,
    "_L": 36659,
    "cur": 71622,
    "imit": 3592,
    "With": 100108,
    "Ġpower": 910,
    "ium": 72891,
    "';ĊĊ": 119033,
    "Ġwom": 64037,
    "left": 78227,
    "ources": 58938,
    "atri": 33085,
    "ĠIm": 54474,
    "ĠMan": 13877,
    "orth": 157,
    "${": 10181,
    "quals": 48183,
    "ese": 83551,
    "_size": 682,
    "Ġiss": 134845,
    "otal": 92372,
    "-g": 78437,
    "ique": 9459,
    "rame": 22385,
    "Ġwidth": 115373,
    "erg": 135767,
    ")(": 4713,
    "ittle": 69422,
    "TR": 19951,
    "ĠThey": 149667,
    "ences": 147147,
    "rl": 58448,
    "ons": 145506,
    "Ġlabel": 49503,
    ".y": 98936,
    "-t": 49486,
    "update": 15442,
    "anel": 19003,
    "sc": 50568,
    ".to": 123316,
    "Ġproject": 22708,
    "Ã¼": 78444,
    "Ġelement": 34577,
    "Ġsuccess": 11807,
    "ĉĉĊ": 114641,
    ".sh": 56495,
    "ram": 60272,
    "ched": 31852,
    "())Ċ": 123534,
    "Ġ(Ċ": 49965,
    "Ġdate": 50976,
    "Ġtot": 131559,
    "_ST": 49608,
    "All": 34590,
    "ification": 83039,
    "ĉvar": 136595,
    "Ġtri": 1648,
    "chem": 44728,
    "my": 12682,
    "Ġbig": 105263,
    "ĠAd": 76941,
    "ĠAt": 121702,
    "ots": 112505,
    "num": 93663,
    "Act": 66927,
    "Ġmap": 30252,
    "era": 141231,
    "cope": 46163,
    ".$": 17911,
    ",âĢĿ": 17158,
    "Ġpop": 130987,
    "Ġfew": 121306,
    "Ġlen": 115949,
    "uid": 14029,
    "eters": 134857,
    "ules": 148376,
    "ÃŃ": 111590,
    "source": 63263,
    "https": 46185,
    "Ġdem": 10128,
    "Ġear": 138973,
    "################": 89659,
    "Ġmatch": 147256,
    "ories": 125775,
    "aces": 32070,
    "ĠCl": 24024,
    "Ġnode": 23295,
    "irc": 135825,
    "local": 84900,
    "unity": 52205,
    "};Ċ": 144944,
    "Ġanother": 110030,
    "<<": 12667,
    "ogle": 67086,
    "Ġsit": 102234,
    "ework": 45091,
    "TE": 92086,
    ".I": 112443,
    "NS": 56826,
    "ology": 100059,
    "ought": 2444,
    ".Cont": 20003,
    ">>": 112225,
    "Ġcare": 48601,
    "state": 46887,
    "ĉprivate": 85701,
    "Ġeffect": 42338,
    "++)": 56797,
    "_file": 136502,
    "ending": 150263,
    "Line": 144348,
    "For": 90003,
    "ior": 64796,
    "ĠSc": 96004,
    "Ġfun": 103080,
    ".Size": 43881,
    "ĉelse": 67699,
    "])": 2672,
    "start": 54801,
    "vious": 63256,
    "Ġ},": 119253,
    "ours": 128167,
    "Ġleg": 3303,
    "Ġservice": 52908,
    "Ġsince": 83280,
    "iron": 37046,
    "Label": 114265,
    "Ġnon": 116213,
    "Ġlos": 407,
    "iction": 121568,
    "Ġfull": 113602,
    "acter": 106486,
    "board": 110534,
    "gress": 35027,
    "Ġturn": 53664,
    "ither": 52693,
    ".size": 51479,
    "Ġbody": 142059,
    "resh": 41495,
    "eturn": 131719,
    "(_": 139000,
    "yles": 127314,
    "ormal": 120177,
    "pi": 76498,
    "Ġsomething": 28759,
    "!--": 67725,
    "uint": 28916,
    "Ġprodu": 113814,
    "Ġstand": 140362,
    "Ġproble": 119637,
    "Ġavailable": 18344,
    "mt": 2994,
    "ĠBl": 99983,
    "Ġ...": 130881,
    "Ġblock": 9664,
    "Input": 101571,
    "Ġkeep": 91430,
    "Count": 100928,
    "open": 14073,
    "Ġ['": 55611,
    "Ġthrow": 51614,
    "uilder": 57135,
    "Action": 145013,
    "Ġthings": 21147,
    "True": 79104,
    "Ġurl": 119986,
    "ĠBo": 100280,
    "printf": 69316,
    "Ġred": 81738,
    "js": 72186,
    ".create": 71733,
    "ĠOr": 114606,
    "Status": 115229,
    "Instance": 109752,
    "Ġcontrol": 25155,
    "Ġcome": 25439,
    "Ġcustom": 12413,
    "location": 70530,
    "model": 72570,
    "ĠčĊ": 140232,
    "Ġsource": 98553,
    "Ġeas": 40734,
    ".out": 117631,
    "]ĊĊ": 40437,
    "oney": 17270,
    "Ġawait": 115946,
    "Ġpartic": 72197,
    "AP": 109201,
    "ublish": 100887,
    "odes": 16375,
    "_pro": 26232,
    "ply": 61829,
    "riter": 11225,
    "Ġprov": 87394,
    "Ġmill": 52295,
    "HT": 46578,
    "])Ċ": 16136,
    "Ġchang": 107183,
    "Ġask": 4547,
    "ĠĠĠĠĠĠĠĠĠĠĠĠĠĠĠĠĠĠĠĠĠ": 1805,
    "Ġoutput": 97296,
    "Ġemail": 22316,
    ".push": 26781,
    "Ġ}čĊčĊ": 39955,
    "ination": 53996,
    "atrix": 17378,
    "Table": 41235,
    "uccess": 64760,
    "]);Ċ": 24888,
    "ĠĠĠĠĠĠĠĠĠĠĠĠĠĠĠĠĠĠĠĠĠĠĠĠĠĠĠĠĠĠĠĠĠĠĠĠĠĠĠ": 4474,
    "Ġdisc": 73698,
    "([": 101558,
    "Ġbusiness": 63558,
    "height": 49233,
    ".html": 95124,
    "ta": 131893,
    "field": 144143,
    "Ġrequired": 107601,
    "_R": 40197,
    "Ġgovern": 11687,
    "}čĊčĊ": 44974,
    "lex": 12408,
    ".,": 46966,
    "ĠSet": 36257,
    "urch": 105932,
    "///": 59834,
    "ts": 35100,
    "af": 78031,
    "Ġmight": 9182,
    "istory": 59195,
    "Str": 146836,
    "Ġnever": 58281,
    "Response": 114563,
    "arse": 144753,
    "ada": 21630,
    "ĠHow": 113949,
    "Ġ*)": 149026,
    "Ġ;": 12063,
    "Ġhard": 124654,
    "Ad": 109395,
    "Ġintern": 47141,
    "used": 111814,
    "(data": 146084,
    "mod": 63755,
    "annel": 35491,
    "Ġnp": 38136,
    "ugg": 25245,
    "Ġ/>Ċ": 100313,
    "Ġcalled": 128931,
    "body": 17995,
    "Ġcho": 123178,
    "(r": 140598,
    "_set": 18242,
    "ird": 3677,
    "Ġ>=": 93010,
    "Ġ};Ċ": 18823,
    "Ġoptions": 145344,
    "ĠGener": 31428,
    "Ġheight": 62423,
    "Point": 102686,
    "You": 119652,
    "ety": 103071,
    "Click": 5274,
    "Ġsmall": 58792,
    "Ġide": 132722,
    "Ġaccess": 106629,
    "anguage": 60982,
    "Ġprotected": 110695,
    "Ġjob": 63177,
    "ĠThere": 150764,
    "Def": 30900,
    "Ġaddress": 47164,
    "Ġuint": 43004,
    "Not": 114278,
    "oo": 16890,
    "aps": 981,
    "<div": 6105,
    "ained": 124144,
    "atur": 34889,
    "Ġsum": 99434,
    "-w": 87169,
    "ĠDate": 85087,
    "Ġlittle": 30304,
    "Ġfri": 80292,
    "YPE": 97408,
    "Ġport": 55086,
    "eh": 47656,
    "pring": 22885,
    "_path": 121731,
    "Ġstatus": 74230,
    "aim": 147830,
    "bool": 38892,
    "Ġappe": 97364,
    "Ġos": 41937,
    ".name": 142396,
    "ension": 147342,
    "_G": 86051,
    "Ġupdate": 68956,
    "Config": 107048,
    "aff": 56458,
    "ERR": 133476,
    "Ġ<=": 32664,
    "ately": 5670,
    "#if": 142417,
    "uction": 135693,
    "ĠTe": 21939,
    "Ġlink": 4321,
    "ĠUser": 143742,
    ".find": 19351,
    ".org": 98121,
    "me": 118484,
    "Ġgiven": 43381,
    "Out": 17391,
    "#endif": 5905,
    "Ġbetter": 132846,
    "Page": 8940,
    "Ġfeel": 113958,
    "enn": 78510,
    "ML": 64479,
    "Ġalready": 105289,
    "Ġincluding": 131284,
    "oogle": 74201,
    "ru": 95406,
    "ically": 40478,
    "prop": 94426,
    "lean": 64564,
    "outer": 33490,
    "Ġalways": 71630,
    "ording": 92809,
    "If": 38506,
    "orage": 77782,
    "Ġparent": 75348,
    "vis": 134725,
    "ĉĉĉĉĉĉĉ": 89920,
    "Ġgot": 143252,
    "stand": 59797,
    "Ġless": 37974,
    "/s": 73960,
    "ĠAss": 23790,
    "apt": 79353,
    "ired": 3220,
    "ĠAdd": 15200,
    "Ġaccount": 86194,
    "ploy": 73971,
    "Ġder": 127595,
    "resent": 124154,
    "Ġlot": 75084,
    "Ġvalid": 140929,
    "ĉd": 91201,
    "Ġbit": 50344,
    "ponents": 96007,
    "Ġfollowing": 109130,
    "_ex": 53961,
    "SON": 101907,
    "Ġsure": 19596,
    "ocial": 72239,
    "Ġprom": 52299,
    "erties": 90395,
    "header": 137189,
    ".pro": 75509,
    "Ġboolean": 127614,
    "Ġsearch": 31159,
    "ken": 64375,
    "Ġorig": 77526,
    "Ġer": 80108,
    "Ed": 142191,
    "EM": 141775,
    "aut": 45641,
    "ling": 55717,
    "ality": 60559,
    "ById": 139598,
    "bed": 69295,
    "ĉcase": 127944,
    "ether": 84004,
    "posit": 23992,
    "Ġinvest": 33067,
    "ĠOR": 113729,
    "Ġsays": 29415,
    "mission": 73529,
    "AME": 111639,
    "Ġtemp": 124237,
    "oad": 34763,
    "Ġrest": 61262,
    "info": 95318,
    "Ġinterest": 20600,
    "Arg": 86974,
    "Ġperform": 27504,
    "pons": 101458,
    "ĠView": 20613,
    "Ġver": 29813,
    "lib": 55319,
    "(const": 7437,
    "Util": 1027,
    "Listener": 130965,
    "arge": 9746,
    "Ġmult": 55020,
    "Ġdie": 61258,
    "Ġsite": 76510,
    "../../": 142946,
    "EL": 77457,
    "Ġvalues": 24650,
    "Ġ})Ċ": 138615,
    "pen": 4037,
    "No": 140545,
    "icro": 102235,
    "Ġbeh": 16834,
    "Ġ'./": 142704,
    "acy": 91968,
    "rec": 40077,
    "()->": 15866,
    "ĉĠĠĠ": 29917,
    "\"))": 25600,
    "Content": 39375,
    "_W": 119740,
    "plement": 11568,
    "Ġwon": 50419,
    "Ġvideo": 17688,
    "adi": 82150,
    "point": 66508,
    "%%": 12536,
    "Ġgl": 51621,
    "erved": 103857,
    "viron": 15999,
    "IF": 103142,
    "uted": 25459,
    "ãĥ": 142190,
    "'m": 36188,
    "Ġcert": 112432,
    "Ġprof": 61421,
    "Ġcell": 104272,
    "ari": 106251,
    "Ġplayer": 115022,
    "ais": 62581,
    "Ġcost": 93633,
    "Ġhum": 97080,
    "(R": 96462,
    "Ġoffic": 139487,
    "ks": 96702,
    ".text": 9389,
    "atures": 114434,
    "Ġtotal": 86159,
    "Ġ*/ĊĊ": 3489,
    "ope": 73039,
    "Ġstat": 84872,
    "UM": 134657,
    "Ġload": 2452,
    "ights": 115343,
    "Ġclear": 90060,
    "uro": 102162,
    "Ġtechn": 100681,
    "upport": 40471,
    "IR": 55237,
    "Ġrow": 71177,
    "Ġseem": 25324,
    "Ġq": 68775,
    "Ġshort": 46481,
    "ĠNot": 90196,
    "ipp": 82451,
    "Group": 119221,
    "section": 88022,
    "max": 94574,
    "irl": 124080,
    "Ġoverride": 138019,
    "Ġcompany": 51600,
    "Ġdone": 40050,
    "\");čĊ": 129115,
    "Ġgre": 115469,
    ".Re": 143465,
    "Ġbelie": 38591,
    "rist": 84830,
    "Ġhealth": 99440,
    "ANT": 93021,
    "()ĊĊ": 55351,
    "ĠBe": 137746,
    ".value": 63047,
    "ĠGr": 113761,
    "ottom": 53155,
    "Ġargs": 126284,
    "PT": 22526,
    "status": 95805,
    "func": 24377,
    "uments": 131852,
    "-h": 98021,
    "Number": 95521,
    ":čĊ": 49094,
    "ĠLog": 24622,
    "erver": 139766,
    "Ġ),Ċ": 129061,
    "ament": 99849,
    "Ġobj": 55637,
    "inc": 44923,
    "Ġchildren": 38154,
    "icy": 146074,
    "IZ": 110042,
    "ands": 26654,
    "ably": 68024,
    "Ġdistrib": 146946,
    "Ġcur": 62790,
    "erial": 84846,
    "Ġdays": 125941,
    "reated": 138936,
    "rect": 102701,
    "-l": 28529,
    "irm": 73362,
    "idden": 34669,
    "omb": 86506,
    "Ġinitial": 96075,
    ".js": 25940,
    "Ġâ": 130044,
    "Query": 134709,
    "Ġonline": 79631,
    "imal": 128993,
    ".con": 107711,
    "au": 111054,
    "Url": 43662,
    "control": 64006,
    "irection": 131003,
    "Ġinstance": 77922,
    "ORT": 43667,
    "ĠFr": 110080,
    "where": 72443,
    "Ġjavax": 47385,
    "Ġorgan": 37814,
    "apter": 83008,
    "Ġreason": 48844,
    "options": 42535,
    "ĠMar": 80283,
    "(a": 55593,
    "Ġwithin": 54760,
    ".âĢĿĊĊ": 136719,
    "ODE": 81784,
    "_DE": 94183,
    "admin": 13252,
    "ended": 6821,
    "Ġdesign": 62808,
    "ĠData": 137980,
    "une": 133359,
    "ĠFile": 48340,
    "root": 151134,
    "Ġcent": 93432,
    "Ġarr": 89858,
    "_add": 1680,
    "len": 12868,
    "page": 133384,
    ",'": 134519,
    "_str": 148762,
    "Ġbro": 68779,
    "ability": 57389,
    "outh": 131490,
    "/c": 93394,
    "pose": 38880,
    "irtual": 88628,
    "earch": 1486,
    "_url": 294,
    "argin": 73862,
    "Http": 56353,
    "Ġschool": 58775,
    "ava": 97278,
    "Ġconsider": 19125,
    ".label": 95349,
    "ĠArray": 108636,
    "web": 60518,
    "opt": 31322,
    ".println": 94287,
    "ulation": 39887,
    "Ġfunc": 17786,
    "PL": 16707,
    "Ġ\"\\": 88482,
    "ĠText": 36308,
    "actory": 9230,
    "(function": 37057,
    "null": 20428,
    "Ġeng": 109255,
    "down": 77670,
    "Ġinclude": 72558,
    "ĠEn": 24005,
    "ĠDr": 108252,
    "Ġdb": 97928,
    "!!": 25872,
    "side": 129319,
    "Ġinit": 141354,
    "quired": 17891,
    "ĠShe": 43815,
    "Column": 50873,
    "react": 60460,
    "Ġann": 45400,
    "Ġstop": 145894,
    "Ġlater": 60258,
    "ĠThat": 94768,
    "ention": 113023,
    "df": 100878,
    "UG": 126819,
    "ILE": 104169,
    "Ġclient": 68254,
    "raft": 119627,
    "ffer": 19143,
    "POST": 63166,
    "elper": 89789,
    "Ġlove": 48838,
    "quote": 81880,
    "oud": 8255,
    "Ġjson": 53486,
    "Ġable": 23254,
    "Ġmen": 128591,
    "AX": 22869,
    "ĠCopyright": 22998,
    "Ã¶": 104429,
    "avig": 147297,
    "req": 74070,
    "Client": 79324,
    "});Ċ": 89770,
    ".Com": 6421,
    "erc": 43567,
    "ilt": 124111,
    "pecial": 119837,
    "_com": 9561,
    "room": 100274,
    ".Name": 55730,
    "Ġgive": 55949,
    "amb": 73431,
    "ike": 92610,
    "Ġcondition": 62209,
    "client": 865,
    "ators": 41425,
    ":\"": 542,
    "Ġcopy": 58280,
    "uture": 46961,
    "iversity": 76868,
    "ernal": 113094,
    "{{": 64368,
    "ĠCan": 132213,
    "ounc": 123599,
    "do": 82597,
    "Ġocc": 5122,
    "Ġappro": 71705,
    "thers": 33017,
    "ze": 72907,
    "Ġeither": 135412,
    "ĠFl": 38096,
    "Ġimportant": 83495,
    "Ġlead": 97994,
    "attr": 63098,
    "ART": 67354,
    "Equal": 49706,
    "Ġda": 139158,
    "etch": 111229,
    "entity": 110888,
    "Ġfamily": 18501,
    "adding": 89281,
    "Ġoption": 37888,
    "Ġexist": 139145,
    "ica": 99154,
    "ĠObject": 139288,
    "'ve": 50514,
    "vers": 144751,
    "itional": 89353,
    "output": 43310,
    "ĠTrue": 36200,
    "ĠOF": 102426,
    "_time": 199,
    "Ġoffer": 49682,
    "Ġ});ĊĊ": 89693,
    "HER": 91825,
    "egin": 33474,
    "\"\"": 127472,
    "Ġwater": 18325,
    "Ġche": 38825,
    "ĠMy": 148446,
    "ored": 100386,
    "Ġstep": 68683,
    "ances": 42210,
    "CK": 1951,
    "AY": 108372,
    "à¸": 47177,
    "struction": 13861,
    "(C": 129814,
    "ouch": 88904,
    "Stream": 80934,
    "active": 52508,
    "ama": 39717,
    "Entity": 134867,
    "product": 13395,
    "(){Ċ": 53630,
    "Ġgovernment": 66944,
    "ĠID": 84587,
    "ajor": 45783,
    "And": 16863,
    "Ġdisplay": 21659,
    "Ð»": 49478,
    "Ġtimes": 4133,
    "Ġfour": 121749,
    "Ġfar": 104428,
    "Ġpresent": 2448,
    "ĠNS": 101604,
    "Ġ\\Ċ": 124283,
    "uest": 16009,
    "Ġbas": 136193,
    "echo": 59215,
    "child": 86189,
    "ifier": 142234,
    "Handler": 112242,
    "Ġlib": 33998,
    "Property": 38917,
    "translation": 28262,
    "Ġroom": 49533,
    "Ġonce": 52995,
    "Ġ[]": 92023,
    "center": 23786,
    "================================": 150369,
    "Ġresults": 47361,
    "Ġcontinue": 12990,
    "Ġtalk": 53052,
    "_get": 93285,
    "Ġgrow": 43954,
    ".sw": 83458,
    "eb": 130632,
    "ĠPublic": 100874,
    "OP": 126327,
    "ecute": 29688,
    "ols": 135653,
    "Ġ**": 113185,
    "\");ĊĊ": 75140,
    "Ġmass": 62954,
    "ured": 85278,
    ".class": 105592,
    "omic": 51353,
    "Ġmean": 25942,
    "ips": 46222,
    "Ġaut": 136378,
    ");čĊčĊ": 109307,
    "Ġuntil": 52653,
    "Ġmarket": 2371,
    "Ġarea": 92480,
    "uit": 122498,
    "Ġlength": 120902,
    "ĠWith": 112324,
    "structor": 80118,
    "event": 29849,
    "\"><": 129938,
    "ĠSp": 2017,
    "IV": 122789,
    "Ġmus": 46884,
    "iff": 17169,
    "Ġkind": 79191,
    "author": 135017,
    "ounds": 80880,
    "mb": 46517,
    "_key": 124490,
    "width": 7195,
    "pository": 81864,
    "Ġlight": 134956,
    "uk": 112703,
    "Row": 5178,
    "ohn": 56588,
    "alf": 45606,
    "vironment": 144559,
    "apper": 41423,
    "ollections": 111934,
    "Ġside": 64058,
    "_info": 78400,
    "Ġexample": 134517,
    "imary": 86584,
    "Ġwr": 111515,
    "Ġcamp": 100251,
    "cribe": 110111,
    "\"/": 52394,
    "Ġmiss": 113552,
    "way": 45999,
    "Ġbased": 25693,
    "Ġplan": 139127,
    "Vis": 144272,
    "omain": 9138,
    "unk": 76934,
    "Ġaway": 41598,
    "UP": 121405,
    "<T": 4004,
    "OS": 30467,
    "iod": 118070,
    "ĠMon": 43647,
    "âĢĻre": 140838,
    "Ġlik": 17045,
    "Ã§": 8923,
    "ively": 90490,
    ".v": 93992,
    "imer": 87907,
    "izer": 102353,
    "Sub": 89798,
    "Ġbutton": 51928,
    "ĠUp": 9900,
    "Ġexperience": 117438,
    "CL": 103264,
    "Ġrender": 97311,
    "_value": 25576,
    "Ġnear": 101749,
    "URL": 100895,
    "alt": 70605,
    "Ġcountry": 42999,
    "ibility": 26560,
    "(),Ċ": 6635,
    "ead": 67809,
    "Ġauthor": 57783,
    "Ġspecific": 144170,
    "base": 16720,
    "(name": 129154,
    "ones": 43867,
    "ĠDo": 3626,
    "Ġalong": 87581,
    "year": 127232,
    "Ġexpress": 59469,
    ".'": 141045,
    "env": 12283,
    "Ġbegin": 129635,
    "Ġsoftware": 60907,
    "Ġimp": 96701,
    "Ġwin": 106401,
    "Ã³n": 29486,
    "Ġthing": 49917,
    "Trans": 21090,
    "ĠTHE": 15725,
    "Ġ<?": 15310,
    "Ġwhy": 124979,
    "Ġdoesn": 34863,
    "ij": 141964,
    "ging": 121896,
    "ĉg": 25892,
    "Ġsingle": 88922,
    "offset": 141136,
    "arning": 32803,
    "ograph": 97898,
    "ley": 13097,
    "_count": 102580,
    "Ġanal": 26952,
    "create": 141712,
    "/m": 78353,
    "ĠReg": 68758,
    "unch": 5174,
    "=$": 5146,
    "isk": 103993,
    "Ġrights": 139595,
    "(M": 108780,
    "Ġ\"\"\"Ċ": 132748,
    "aper": 61700,
    ".model": 110861,
    "Ġpo": 45660,
    "empty": 99836,
    "artment": 85493,
    "Ġant": 117297,
    "ĠWhen": 52388,
    "Ġwomen": 108265,
    "ĠEd": 97627,
    "Ġseason": 80621,
    "Ġdest": 42453,
    "Ã£": 39893,
    "(h": 65778,
    "Ġpossible": 69915,
    "Ġsever": 24880,
    "Ġbtn": 99144,
    "Ġdidn": 109542,
    "Ġsent": 140622,
    "Ġenc": 41126,
    "Ġcommand": 85759,
    "Ġ],Ċ": 79096,
    "_x": 66266,
    "Ġrecent": 83128,
    "olution": 103688,
    "vector": 69544,
    "ĠBy": 112523,
    "ĠMay": 99595,
    "ĠAct": 30016,
    "»¿": 92511,
    "Ġmoney": 40278,
    "INT": 65547,
    "bsite": 61113,
    "ĉp": 78500,
    ".čĊ": 78580,
    "ï»¿": 84262,
    "sl": 124913,
    "attern": 139319,
    "ĠClass": 15481,
    "Ġtold": 17611,
    "udio": 81794,
    "current": 125631,
    "Ġequ": 67971,
    "Ġauto": 58258,
    "ĠState": 14992,
    "da": 135101,
    "msg": 141869,
    "));ĊĊ": 105885,
    "Ġworking": 18129,
    "Ġquery": 59920,
    "ĠBr": 38438,
    "Ġwindow": 48254,
    "auth": 47583,
    "only": 137623,
    "ĉt": 45194,
    "Ġleast": 78959,
    "agn": 66282,
    "Ġexpl": 31002,
    "itter": 73640,
    "aring": 88982,
    "Ġcolumn": 2239,
    "ĠGeneral": 109492,
    "\":\"": 128641,
    "eral": 58955,
    "rior": 145909,
    "Ġrecord": 19111,
    "IB": 78132,
    "EX": 116070,
    "Ġdat": 4448,
    "Ġmaking": 10997,
    "ued": 70660,
    "ĠCar": 34206,
    "emp": 21461,
    "\".": 74800,
    "ĠMed": 49911,
    "Ġclose": 65452,
    "Ġpercent": 75890,
    "Ġpast": 56646,
    "(g": 5712,
    ":(": 1444,
    "Ġwrite": 95723,
    "Ġmove": 88029,
    "Ġpat": 29142,
    "Control": 14725,
    ".To": 77290,
    "Ġvi": 45935,
    "*/Ċ": 26474,
    "inate": 111235,
    "'ll": 62575,
    "aged": 54505,
    "Null": 2974,
    "Ġspecial": 137721,
    "IZE": 45057,
    "Ġcity": 2437,
    "/*Ċ": 142304,
    "ĠEng": 101752,
    "ixed": 110266,
    "inary": 129165,
    "py": 77682,
    "Ġeff": 40217,
    "ario": 73593,
    "Ġtell": 72419,
    "avor": 20254,
    "Ġselect": 143732,
    "level": 1955,
    "imum": 41398,
    "oper": 47475,
    "Builder": 142506,
    "IP": 138912,
    "'),Ċ": 128764,
    "esc": 140203,
    "Ġfont": 128912,
    "\";ĊĊ": 39074,
    "ĠAm": 81065,
    "ished": 76993,
    "ills": 15248,
    "Inter": 35848,
    "OW": 55094,
    "Ġcourse": 149443,
    "Ġlate": 12292,
    "iddle": 121794,
    "Ġamount": 23136,
    "Ġasync": 20011,
    "ino": 77399,
    "cul": 138461,
    "Ġì": 86390,
    "andle": 65655,
    "_user": 84001,
    "Ġben": 42834,
    "ĠCal": 8543,
    "Ġ$_": 53686,
    "ĠRep": 73668,
    "Ġenough": 2091,
    "Token": 112593,
    ".user": 91941,
    "(j": 28851,
    "Sc": 137394,
    "Width": 126082,
    "now": 76708,
    "atform": 110201,
    "Ġlooking": 54675,
    "Ġhold": 40268,
    "Module": 78543,
    "ITY": 55141,
    "vo": 63803,
    "ison": 89715,
    ".Data": 129519,
    "yc": 43191,
    "Ġpot": 7414,
    "ĠTrump": 13715,
    "idual": 32897,
    "ides": 70850,
    "rt": 49878,
    "Ġproperty": 131438,
    "ĠĠĠĠĠĠĠĠĠĠĠĠĠĠĠĠĠĠĠĠĠĠĠĠĠĠĠĠĠĠĠĠĠĠĠĠĠĠĠĠĠĠĠ": 35420,
    "amework": 117212,
    "go": 32093,
    "Ġlow": 43433,
    "Ġpara": 85989,
    "Ġprice": 130235,
    "ury": 124907,
    "Ġtoday": 60287,
    "roy": 149764,
    "Ġ'/": 43347,
    "Ġpolit": 26045,
    "Ġ''": 78357,
    "ymb": 144105,
    "Ph": 83954,
    "Ġadv": 66111,
    "Ġattack": 62386,
    "ĠSte": 133439,
    "ROM": 11884,
    "ana": 82121,
    "Ġmeans": 124203,
    "Ġstory": 41322,
    "ids": 105829,
    "aken": 27682,
    "Ġmeet": 99077,
    "Ġmom": 126320,
    "ĠâĢĺ": 53740,
    "Ġ?>": 27344,
    "Ġden": 142632,
    "obile": 66236,
    "change": 136922,
    "ĠĠĠĠĠĠĠĠĠĠĠĠĊ": 128840,
    "ici": 110998,
    "na": 148147,
    "ĠForm": 15220,
    "Ġsort": 18723,
    "Select": 104421,
    "pare": 69120,
    "Ġthought": 17393,
    "_con": 60581,
    "Ġtask": 86538,
    "ocus": 100023,
    "ĠDE": 99212,
    "ĠMin": 93893,
    "Ġopt": 55681,
    "ĉbreak": 76761,
    "umer": 56477,
    "KE": 43071,
    "then": 125690,
    "Ġdet": 68186,
    "ĠTest": 3978,
    "ports": 93784,
    "Ġreview": 80595,
    "('/": 146888,
    "move": 116218,
    "Ġswitch": 126126,
    "ERT": 90689,
    "patch": 14289,
    "annot": 101075,
    "ãĤ": 101062,
    "Ġabove": 41333,
    "itive": 70857,
    "Ġquestion": 113762,
    "ĠQu": 79417,
    "ãĢĤĊĊ": 103714,
    "gle": 4032,
    "Ġword": 149320,
    "Ġprovide": 123043,
    "ĠReturn": 8583,
    "Ġresearch": 95020,
    "Ã£o": 93469,
    "ustr": 69077,
    "Ġpublish": 77785,
    "chema": 151261,
    "}}": 10126,
    "ĠCON": 47389,
    "-in": 53406,
    "allback": 74971,
    "Ġcover": 40619,
    "\\\\": 130290,
    "color": 53884,
    "ĠIS": 22142,
    "Ġwhether": 7802,
    "imate": 68640,
    "isc": 25498,
    "Bar": 102911,
    "Ġdiv": 44970,
    "Be": 70265,
    "ourn": 16796,
    "Ġhaving": 83315,
    "lem": 104965,
    "player": 72918,
    "abs": 107585,
    "amera": 28642,
    "ney": 110772,
    "Ġexc": 74725,
    "gether": 54274,
    "plied": 40624,
    "ao": 76339,
    "[$": 51397,
    "Ġ++": 85951,
    "ipe": 53005,
    "show": 36708,
    "/d": 35241,
    "[:": 73731,
    "agement": 105646,
    "lev": 82907,
    "_ID": 101876,
    "rary": 59598,
    "ades": 80277,
    "_se": 84568,
    "ause": 44088,
    "Ġemploy": 69757,
    "Ġ*/čĊ": 14443,
    "Ġfre": 71074,
    "Ġ'@": 84629,
    "Ġcomplet": 150102,
    "Ġlarge": 71089,
    "ral": 64240,
    "\\x": 142080,
    "Ġfac": 88446,
    "<String": 28814,
    "Ġcreated": 10458,
    "uper": 8921,
    ".state": 88340,
    "Ġhost": 45801,
    "eneric": 104689,
    "/b": 28273,
    "(!": 75321,
    "while": 123929,
    "ias": 894,
    "BUG": 31234,
    "Ġ);ĊĊ": 36530,
    "Ġrole": 22433,
    "Reg": 90871,
    "ĠColor": 6254,
    "Start": 33069,
    "Ġporn": 33165,
    "top": 96231,
    "Ġweb": 74144,
    "Ġdev": 53636,
    "Ġdeal": 60369,
    "++)Ċ": 33535,
    "Integer": 112874,
    "position": 104570,
    ".on": 79241,
    "Ġ(\"": 42516,
    "ä¸": 2840,
    "Ġproblem": 77320,
    "sv": 91424,
    "Ġpress": 34498,
    "ABLE": 68130,
    "ATION": 14974,
    "ĠSee": 95256,
    "anch": 14923,
    "Ġthough": 52122,
    "leep": 131604,
    "Ġ<!--": 113421,
    "Ġpoints": 18397,
    "ĠĠĠĠĠĠĠĠĠĠĠĠĠĠĠĠĠĠĠĠĠĠĠĠĠ": 104933,
    ".J": 69862,
    "Ġ::": 86710,
    "ptr": 36108,
    "DB": 119680,
    "++;Ċ": 6835,
    ".png": 107760,
    "node": 149463,
    "soft": 150343,
    "pond": 58012,
    "Ġever": 5521,
    "----------------------------------------------------------------": 10239,
    "Menu": 54926,
    "('#": 62591,
    "Ġservices": 128899,
    "pg": 38056,
    "})Ċ": 42714,
    "params": 9330,
    "Ġactually": 13316,
    "Ġ\"/": 38847,
    "Empty": 145464,
    "Method": 123939,
    "Ġident": 25747,
    "unic": 144024,
    "Ġmillion": 129272,
    "Ġaff": 114294,
    "style": 23157,
    "Ġconc": 43238,
    "ios": 68163,
    "ignment": 139868,
    "ULT": 105731,
    "Pr": 16717,
    "\";čĊ": 126593,
    "Ġunderstand": 4732,
    "uary": 6446,
    "Ġhappen": 119792,
    "Ġserver": 13490,
    "ĠCo": 3101,
    "SC": 83663,
    "Ġles": 22378,
    "Ġfiles": 43296,
    "Grid": 61402,
    "sql": 112144,
    "Ġoften": 145089,
    "Ġinfo": 69998,
    "_tr": 37411,
    "src": 73340,
    "ony": 94199,
    "Ġspace": 67438,
    "umb": 73399,
    "Ġpassword": 77694,
    "Ġstore": 135373,
    ",ĊĊ": 89699,
    "ĠWhat": 75691,
    "ged": 100949,
    "ĠFalse": 122627,
    "Us": 19617,
    "swer": 120712,
    "_index": 128441,
    "Ġformat": 125623,
    "most": 61899,
    "sm": 23725,
    "New": 141582,
    "Ġdetails": 93433,
    "Ġprob": 115690,
    "ĠAND": 139079,
    "()čĊ": 127609,
    "ilar": 89571,
    "Ġ${": 16114,
    "rypt": 86942,
    ".Collections": 81169,
    "$this": 133717,
    "ĠFree": 142446,
    "_of": 17958,
    "(false": 16130,
    "dated": 134711,
    "Ġ>>": 91042,
    "Ġface": 137238,
    "CTION": 70368,
    "Ġsave": 93294,
    "Ġtyp": 37456,
    "dev": 104700,
    "(\"#": 70355,
    "AGE": 99438,
    "container": 115763,
    "edit": 139043,
    "QL": 119937,
    "Ġitems": 107264,
    "Ġsocial": 61474,
    "ien": 97982,
    "ĠReact": 69319,
    ").ĊĊ": 119961,
    "Ġmar": 99374,
    "Ġredu": 29151,
    "ĠRE": 127667,
    ".put": 45817,
    "Ġmajor": 90149,
    "Cell": 37422,
    "next": 67933,
    "Ġexpected": 33505,
    "Ġyet": 93567,
    "Ġindiv": 39718,
    "tributes": 107068,
    "atis": 45735,
    "amed": 26395,
    "Ġfood": 108771,
    "Source": 85147,
    "(string": 41540,
    "Ġ+Ċ": 7133,
    "ites": 19739,
    "dr": 43977,
    "Ġmembers": 20555,
    "Ġcomb": 97117,
    "items": 139090,
    "ĠPer": 19372,
    "TH": 81197,
    "=True": 90270,
    "Ġbar": 113816,
    "_SE": 84510,
    "comm": 73456,
    "(w": 93607,
    ")ĊĊĊ": 132598,
    "Ġsend": 122832,
    "Ġinc": 10018,
    "unsigned": 51737,
    "FA": 131080,
    "Ġparams": 62072,
    "apping": 9198,
    "ros": 127409,
    "ugin": 82943,
    "fa": 56407,
    "Ġconnection": 98470,
    "Ġ};ĊĊ": 25090,
    "Ġbecome": 140543,
    "Mode": 116974,
    "Ġev": 138512,
    "Ġdiff": 60667,
    "ĠUnited": 78422,
    "Height": 135007,
    "fully": 20434,
    "images": 104435,
    "Ġmakes": 78505,
    "Ġglobal": 83365,
    "Ġcontact": 129196,
    "':Ċ": 86733,
    "Ġabs": 30690,
    "Ð°Ð": 31828,
    "float": 60575,
    "Ġexcept": 60612,
    "ĠPol": 64616,
    "Child": 96753,
    "typ": 127763,
    "Ġcertain": 53474,
    "iÃ³n": 103052,
    "OUT": 99375,
    "Ġimpro": 37328,
    "iles": 95280,
    "Ġ-->Ċ": 110899,
    "ĠPart": 3400,
    "values": 48705,
    "oss": 22625,
    "/**": 70715,
    "ilit": 40211,
    "ĠEvent": 12563,
    "curity": 13320,
    "ster": 21525,
    "Ġcharacter": 29368,
    "Ġnews": 89800,
    "Ġ\",": 139502,
    "Ġdevice": 8325,
    "cel": 138057,
    "login": 122438,
    "heet": 25232,
    "Default": 66063,
    "@\"": 102522,
    "ĉĠ": 7099,
    "click": 82127,
    "(value": 14390,
    "ĠAb": 65893,
    "Ġprevious": 133906,
    "ERROR": 125132,
    "ocal": 91640,
    "Ġmaterial": 11527,
    "Ġbelow": 112076,
    "ĠChrist": 106270,
    "Ġmedia": 118138,
    "cover": 33676,
    "ĠUI": 149829,
    "Ġfail": 126671,
    "Ġblack": 147088,
    "Ġcomponent": 61628,
    "ĠAmerican": 68643,
    "Ġadded": 56047,
    "Ġbuy": 80352,
    "stit": 19646,
    "Ġcame": 63127,
    "Ġdelete": 92446,
    "property": 20562,
    "oding": 21505,
    "Ġcard": 5061,
    "rops": 107603,
    "Ġhttps": 37543,
    "Ġroot": 98902,
    "Ġhandle": 103233,
    "CC": 102137,
    "Back": 84249,
    "emplate": 19549,
    "Ġgetting": 66198,
    "_by": 148522,
    "mail": 84841,
    "_sh": 36322,
    ".assert": 14203,
    "ĠDec": 109058,
    "(true": 47946,
    "Ġcomput": 85597,
    "Ġclaim": 21564,
    "'=>": 21080,
    "ĠSub": 120835,
    "Ġair": 72152,
    "ops": 128917,
    "nav": 12027,
    "ements": 104386,
    "(id": 108520,
    "Ġenter": 16601,
    "anged": 85626,
    "End": 6053,
    "Ġlocation": 149678,
    "Ġnight": 19678,
    "Ġdoing": 122247,
    "ĠRed": 93181,
    "lin": 56825,
    "}ĊĊĊ": 55669,
    "vider": 136696,
    "Ġpick": 77669,
    "Ġwatch": 25168,
    "essages": 131093,
    "Ġhuman": 19249,
    "Ġdam": 32829,
    "pend": 31783,
    "dir": 17905,
    "Ġtax": 30925,
    "Ġgirl": 141069,
    "reet": 110166,
    "Ġbox": 99610,
    "Ġstrong": 34195,
    "(v": 42684,
    "rel": 138779,
    "Ġinterface": 101484,
    "Ġmsg": 12589,
    "fect": 46635,
    "_at": 94596,
    "Ġhouse": 148033,
    "Ġtrack": 44668,
    "');ĊĊ": 91020,
    "je": 67227,
    "ĠJohn": 8026,
    "istr": 99234,
    "(S": 126304,
    "ube": 11259,
    "Ġce": 108017,
    "itted": 142589,
    "VER": 47630,
    "*)": 115270,
    "parent": 87393,
    "Ġapplication": 34789,
    "any": 89377,
    ".swing": 11525,
    "Ġpack": 78748,
    "\\u": 131471,
    "Ġpract": 33537,
    "Ġsection": 27098,
    "ctx": 130362,
    "Ġunsigned": 137713,
    ".Point": 148309,
    "ĠOne": 146025,
    "Ä±": 37946,
    "iple": 83147,
    "aid": 111072,
    "Ñĥ": 90360,
    "Vector": 102796,
    "byte": 54873,
    "Ġwait": 128281,
    "ĠÃł": 140583,
    "Ã¥": 98266,
    "Ġtogether": 5806,
    "Ġthrows": 132071,
    "FO": 18967,
    "'))": 82825,
    "host": 125521,
    "ising": 150637,
    ".view": 61266,
    "Ġterms": 134731,
    "framework": 25126,
    "-r": 93226,
    "Ġapply": 121824,
    "Ġsession": 11882,
    "Options": 104251,
    "uggest": 44716,
    "Ġothers": 156,
    "witter": 139081,
    "Ġfund": 13829,
    "Init": 112565,
    "__(": 78455,
    "ensor": 8051,
    "GET": 55820,
    "Ġseveral": 141393,
    "ii": 39711,
    "[j": 131295,
    "IO": 82455,
    "Ġtemplate": 81727,
    "Position": 91694,
    "Ġecon": 112467,
    "achine": 146229,
    "Ġil": 20934,
    ".spring": 60767,
    "main": 105610,
    "elt": 83121,
    "iment": 52102,
    "Rec": 107901,
    "mm": 45558,
    "ĠUniversity": 131153,
    "ursor": 70334,
    "ĠĠĠĠĠĠĠĠĠĠĠĠĠĠĠĠĠĠĠĠ": 35296,
    "GL": 47944,
    "icture": 34923,
    "ithub": 25925,
    "cer": 125234,
    "cast": 72955,
    "From": 51381,
    "ales": 143063,
    "Ġsubject": 49932,
    "password": 18627,
    "ny": 119374,
    "Ġesc": 137390,
    ".write": 45894,
    "ï¼Į": 135771,
    "What": 35588,
    ".H": 70831,
    "Ġhistory": 22736,
    "ĠFe": 101195,
    "Ġindividual": 128457,
    "unit": 144744,
    "Ġ-->": 123715,
    "Ġdu": 1651,
    "IST": 98440,
    "Ġusers": 1597,
    "fs": 57150,
    "false": 71864,
    "unt": 39933,
    "Title": 136877,
    "Ġmot": 142406,
    "Ġfuture": 20204,
    "ached": 17119,
    "Ġstarted": 75965,
    "Ġmode": 145961,
    "Ġ'<": 79462,
    "_array": 59005,
    "Ġax": 62536,
    "'];Ċ": 72321,
    "ires": 25866,
    "There": 28651,
    "ught": 13105,
    "tml": 94648,
    "posed": 105820,
    "icult": 88487,
    "Ġtook": 49282,
    "Ġgames": 6039,
    "Ġ}}": 55979,
    "Ġ?>Ċ": 67220,
    "Ġproducts": 91550,
    "Is": 75153,
    "Ġbad": 130816,
    "ĠDes": 95641,
    ".path": 19845,
    "'ĊĊ": 27421,
    "ĠPost": 135756,
    "avel": 36360,
    "(:": 64704,
    "Ġneeds": 134597,
    "Ġknown": 61784,
    "Fl": 14281,
    "Ġexec": 94954,
    "Ġseen": 6732,
    "ume": 37932,
    "Ġborder": 30166,
    "Ġlive": 593,
    "temp": 13821,
    "Per": 80677,
    "Ġvariable": 35804,
    "iet": 147756,
    "ĠDef": 47471,
    "Ġge": 25852,
    "eme": 28618,
    "_back": 113775,
    "first": 99165,
    "Ġprovided": 45779,
    "////////////////////////////////": 37442,
    "Ġfilename": 116547,
    "Ġhope": 68976,
    "uly": 32665,
    "auto": 80399,
    "find": 75842,
    "_string": 114027,
    "btn": 73322,
    "itude": 86196,
    "Attribute": 20858,
    "Ġyoung": 113948,
    ".txt": 57074,
    "Ġwebsite": 3639,
    "ĠProp": 120462,
    "Ġey": 7816,
    ">();Ċ": 130652,
    "ional": 29593,
    "ARR": 52803,
    "ictionary": 78493,
    "urther": 762,
    ".</": 108592,
    "ALL": 2939,
    "Ġstudy": 53612,
    "ili": 92474,
    "Ġnetwork": 149172,
    "yl": 115053,
    "istance": 35418,
    "OK": 90964,
    "NU": 126342,
    "rest": 102318,
    "ĠST": 13198,
    "icrosoft": 4858,
    "Ġlimit": 141179,
    "Ġcut": 147611,
    "():Ċ": 113531,
    "Ġcou": 38232,
    "ogn": 46582,
    "Ġsizeof": 5753,
    "ival": 73162,
    "Ġwent": 11331,
    ".z": 103248,
    "Link": 3253,
    "Ġfire": 55559,
    "Ġacross": 53034,
    "Ġcommunity": 147121,
    "region": 60810,
    "NE": 82027,
    "Ref": 77135,
    "Ġofficial": 150490,
    "Ġvisit": 27358,
    "olve": 131276,
    "Ġreceived": 73363,
    "Ġtoken": 54285,
    "Ġmonths": 86349,
    "Ġanim": 71361,
    "Ġparticular": 74768,
    "styles": 108650,
    "ico": 51811,
    "Ġess": 87204,
    ".Control": 89620,
    "ĠÃ©": 147943,
    "ball": 89139,
    "Ġlearn": 44076,
    "inding": 119545,
    "Var": 30589,
    "Ġdecl": 143340,
    "(err": 132291,
    "LECT": 2607,
    "One": 12767,
    "pha": 25723,
    "Ġ~": 60764,
    "fort": 59753,
    "asure": 101728,
    "Ġmind": 122391,
    "ĠEnd": 52960,
    "Check": 97375,
    "Ġquick": 134302,
    "\"),": 39799,
    "AND": 36213,
    "utions": 80978,
    "Base": 39522,
    "________": 76459,
    "Ġcomment": 150923,
    "INE": 47807,
    "âĢĻve": 25379,
    "But": 76052,
    "ĠEl": 14803,
    "ĠUs": 17970,
    "Ġadmin": 13159,
    "mark": 5928,
    "ĠName": 145862,
    "`Ċ": 89904,
    "ĠType": 92410,
    "amic": 119267,
    "pc": 131573,
    "loor": 12813,
    "FT": 96341,
    "Ġopp": 9262,
    "cket": 144994,
    ")->": 105527,
    "tx": 44078,
    "Ġpur": 136603,
    "uel": 3873,
    "ymbol": 7449,
    "uation": 46589,
    "anger": 68839,
    "Ġbackground": 20965,
    "ecess": 45601,
    "efined": 139116,
    "........": 134450,
    "Ġdescription": 104516,
    "Ġrepresent": 18910,
    "\"));Ċ": 14503,
    "pression": 45134,
    "rowser": 126023,
    "Ġseries": 138919,
    "wards": 134042,
    "($_": 91209,
    "aise": 26268,
    "Ġhot": 7860,
    "acity": 23501,
    "ries": 61425,
    "actions": 129981,
    "Create": 16115,
    "adio": 94992,
    "amples": 132207,
    "Ġoriginal": 6553,
    "ensive": 113426,
    "font": 96528,
    "stream": 34617,
    "ï»¿using": 5756,
    ".springframework": 151441,
    "server": 143455,
    "Ġbill": 17016,
    "ACK": 2579,
    "ilename": 73809,
    "Ġframe": 50957,
    "Ġ=Ċ": 145639,
    "Edit": 62885,
    "adius": 24271,
    "Ġdraw": 18567,
    "anks": 78983,
    "Ġdeter": 141711,
    "Ġcomes": 96832,
    "_int": 104681,
    "Ġforeach": 11422,
    "angle": 131595,
    "Ġelect": 132356,
    "pected": 104680,
    "Header": 27452,
    "istration": 47923,
    "False": 41589,
    "ĠGame": 1745,
    "Ġfilter": 100621,
    "Activity": 4242,
    "Ġlarg": 45667,
    "inition": 36092,
    "Ġ\"<": 150559,
    "ised": 68646,
    "Ġremove": 112015,
    "ĠTrans": 136679,
    "met": 150996,
    "see": 79082,
    "Format": 107093,
    "Command": 81060,
    "ĠEX": 8995,
    "None": 23120,
    "Ġfront": 8146,
    "ASE": 60062,
    "ĠRec": 68897,
    "oundation": 53670,
    "Ġvo": 28999,
    "=\\\"": 43206,
    "(*": 36086,
    "Change": 137125,
    ".Write": 35402,
    "group": 148170,
    "ients": 24152,
    "uy": 99139,
    "****************************************************************": 50829,
    "Ġdig": 63810,
    "hr": 58797,
    "(-": 18414,
    "Ġgen": 21709,
    "number": 28521,
    "vec": 86654,
    "urope": 12817,
    "entry": 99229,
    "LL": 90400,
    "Ġste": 104319,
    "Valid": 137501,
    "'],": 40535,
    "_param": 87654,
    "Ġselected": 88002,
    "Ġaccording": 11090,
    "ĠDis": 127356,
    "Ġutil": 80738,
    "Buffer": 106963,
    "_error": 96330,
    "Ġassoci": 85084,
    "_SIZE": 99174,
    "Ġwor": 121203,
    "Ġprintf": 124236,
    "rag": 124574,
    "Âł": 98988,
    "DD": 14321,
    "ĠVal": 97537,
    "Ġactiv": 7368,
    "Eng": 86240,
    "etime": 120007,
    "Ġvirtual": 94045,
    "aign": 14837,
    "aur": 30879,
    "ĠPres": 62858,
    "ĠException": 64220,
    "Ġanything": 5113,
    "ĠOff": 35902,
    "Ġhours": 548,
    "Ġwar": 148771,
    "Args": 103252,
    "aging": 148399,
    "Ġmodels": 29666,
    "ĠTime": 141203,
    "Ob": 66034,
    "ams": 56488,
    "joy": 143118,
    "Ġearly": 101549,
    ".read": 33458,
    "Ġcenter": 138521,
    "ĠInitial": 131146,
    "Ġlanguage": 60484,
    "length": 114357,
    "xy": 41805,
    "Ġsn": 71652,
    "Ġinf": 131081,
    "Post": 102039,
    "Ġago": 11749,
    "Ġeasy": 131538,
    "_code": 18944,
    "ĠANY": 35525,
    "_ch": 51882,
    "Ġdownload": 81787,
    "(T": 28165,
    "aved": 133822,
    "âĢĵ": 7930,
    "Ġstudents": 75620,
    "Ġfig": 69409,
    "light": 128486,
    "xx": 88364,
    "Ġbuffer": 14113,
    "ĠDep": 53685,
    "ĠMath": 67513,
    "ITH": 83459,
    "Ġvari": 123640,
    "Ġdue": 4883,
    "Factory": 66365,
    "Ġpor": 32475,
    "Ġep": 123952,
    "otype": 50812,
    "Ġcannot": 129268,
    "Ġwhite": 107653,
    "<int": 101266,
    "tern": 138763,
    "Ġregister": 72137,
    "Ġpred": 76167,
    "clus": 41522,
    "_date": 88053,
    "Ġ/**": 18137,
    "Ġauth": 83134,
    "Ġ[]Ċ": 70657,
    "Ġperiod": 105856,
    "nown": 33332,
    "Ġvot": 119541,
    "Ġscreen": 51255,
    "'d": 98404,
    "Types": 129556,
    "Ġtmp": 20881,
    "ÐµÐ": 68881,
    "ural": 44148,
    "Ġbenef": 128302,
    "_y": 99763,
    "Ġnet": 147079,
    "ĠStates": 134369,
    "']['": 101009,
    "ĠNe": 138070,
    "ĠNOT": 118949,
    "Ġneg": 57811,
    "Ġcommon": 55808,
    "scope": 119000,
    "Ġcred": 63770,
    "ges": 18074,
    "_TYPE": 102067,
    "Ġsuggest": 39507,
    "oom": 64640,
    ".ĊĊĊ": 81786,
    "Ġaccept": 135523,
    "Ġrandom": 44992,
    "erm": 123859,
    "ĠVector": 47126,
    "with": 124511,
    "TER": 70667,
    "(str": 1145,
    "Ġrespons": 119905,
    "Ġhit": 133744,
    ".Set": 72342,
    "grid": 121884,
    "ria": 32590,
    "Ġclick": 12374,
    "undle": 90221,
    "Case": 26699,
    "insert": 61021,
    "Utils": 79880,
    "Ġ\"\"\"": 52338,
    "Ġimplement": 21032,
    "atal": 23745,
    "tempt": 51610,
    "template": 94993,
    "ocr": 18002,
    "returns": 66031,
    "Ġplayers": 74294,
    "users": 31766,
    "edef": 101261,
    "ĠThese": 119204,
    "Ġamong": 106752,
    "Ġdeb": 89256,
    "ha": 82320,
    ".getElement": 3133,
    "Ġcirc": 98060,
    "Ġanswer": 125984,
    "Ġwalk": 148034,
    "Ġtreat": 41209,
    "ĠGe": 41442,
    "ĠCreate": 127707,
    "Ġage": 141080,
    "Ġreq": 93461,
    "OST": 60138,
    "angular": 87738,
    "Ñı": 113877,
    "Ġfive": 54115,
    "Ġdistributed": 142100,
    "Ġfriend": 65789,
    "TP": 96865,
    "Ġclean": 15242,
    "ows": 60253,
    ".Controls": 99141,
    "dis": 66518,
    "Ġwords": 40653,
    ".io": 94870,
    "zy": 64312,
    "Ġheader": 71395,
    "ĠCheck": 16947,
    "âĢĻm": 127473,
    "just": 61691,
    "holder": 147787,
    "=\"<?": 128832,
    "ĠGNU": 53585,
    "ĠCol": 90579,
    "imest": 125261,
    "entic": 144774,
    "{ĊĊ": 31188,
    "Ġtre": 100768,
    "last": 43701,
    "la": 130385,
    "ĠYork": 112401,
    "Lo": 77588,
    "Ġdiscuss": 136143,
    "ĠGod": 87597,
    "Ġissue": 40769,
    "rew": 135939,
    "Window": 125760,
    "Ġland": 16582,
    "Ġstream": 22982,
    "ĠPar": 117688,
    "Ġquality": 121239,
    "Par": 117392,
    "_num": 142890,
    "Ġsal": 117095,
    "elves": 25917,
    "ORD": 98502,
    "(user": 2516,
    "Ġworks": 82616,
    "Ġhalf": 119622,
    "enses": 118665,
    "vas": 54402,
    "Ġpolice": 60577,
    "(\"/": 38251,
    "ua": 9363,
    "Ġsimple": 80791,
    "Address": 93120,
    "Ġempty": 19448,
    "esh": 149206,
    "Update": 139953,
    "ĠCreated": 150338,
    "('.": 62889,
    ").Ċ": 124787,
    "ĠĠĠĠĠĠĠĠĠĠĠĠĠĠĠĠĠĠ": 90000,
    "Ġagre": 135415,
    "ĠFROM": 80800,
    "Ġcook": 8640,
    "Ġeverything": 5498,
    "ilities": 2393,
    ".status": 60871,
    "Ġrelations": 138920,
    "extern": 30380,
    "Ġnothing": 103416,
    "Ġrunning": 129525,
    "ĉvoid": 80373,
    "RI": 88233,
    "_a": 53164,
    "_CON": 21881,
    "por": 79818,
    ".sub": 29793,
    "require": 139629,
    "ĠCity": 36447,
    "ĠWest": 122590,
    "Ġmor": 129349,
    "store": 57437,
    "Equals": 95122,
    "oder": 73172,
    "Ġna": 1281,
    "Ġ[[": 100729,
    "Ġ('": 132673,
    "ĠDon": 71581,
    "ERS": 24165,
    "/p": 114115,
    ".json": 19149,
    "abor": 60307,
    "Ġsomeone": 66268,
    "_text": 46357,
    ".css": 128730,
    ".Tab": 37287,
    "ĠSome": 6671,
    "ato": 18776,
    "double": 50986,
    "Ġshare": 84195,
    "(void": 12017,
    "_dir": 117215,
    "Ġur": 51545,
    "Stack": 105123,
    "ĠWorld": 81518,
    ".X": 71405,
    "stract": 56,
    "How": 120862,
    ".Generic": 80397,
    "icles": 100485,
    "Ġentry": 15538,
    "Ġchanges": 120904,
    "Ġpersonal": 87295,
    "(A": 22084,
    "Ġoffset": 19994,
    "_ptr": 52776,
    "Ġpie": 48215,
    "ĠJan": 16291,
    "-group": 130574,
    "module": 116928,
    "Items": 21754,
    "ĠHowever": 114695,
    "verage": 106974,
    ".Font": 142583,
    "Ġevents": 135499,
    ".min": 86796,
    "Ġinvol": 146479,
    "za": 122554,
    "Ġwhole": 61940,
    "Ġneeded": 138826,
    "Ġlikely": 147560,
    "rief": 8407,
    "ORM": 146268,
    "version": 143573,
    "Ġfight": 335,
    "Ġein": 144212,
    "Frame": 108694,
    "gen": 55854,
    "ĠOut": 53544,
    "avigation": 109289,
    "Length": 13623,
    "illed": 31774,
    "quence": 118769,
    "Ġ!==": 76667,
    "ĠSoftware": 100021,
    "Ġwriting": 96721,
    "Ġrate": 86633,
    "'],Ċ": 80497,
    "Panel": 125733,
    "inner": 66188,
    "Ġ[\"": 33066,
    "Ġtw": 21770,
    "cd": 41793,
    "Ġ;Ċ": 59520,
    "_state": 141387,
    "ĠSm": 2266,
    "ĠMark": 123696,
    "))ĊĊ": 7634,
    "prot": 131935,
    "ĠMr": 47477,
    "method": 5150,
    "ustomer": 114550,
    "Icon": 113329,
    "Ġcorrect": 56247,
    "(object": 115742,
    "ĠMore": 107570,
    "Ġfall": 60731,
    "Ġvol": 42103,
    "Ġdevelopment": 43243,
    "ently": 70823,
    "Ġsi": 18027,
    "medi": 99503,
    "ving": 5940,
    "PP": 36817,
    "aker": 87558,
    "Ġindu": 133604,
    "Ġelif": 63837,
    "Ġpret": 144575,
    "Ġbelieve": 54492,
    "ns": 97544,
    "omet": 18781,
    "ĠIntern": 33368,
    "Rect": 134098,
    "So": 81849,
    ".error": 88881,
    "Read": 119924,
    "Ġfeatures": 94218,
    "Ġminutes": 36743,
    "---": 90235,
    "asing": 121664,
    "cret": 85013,
    "\">čĊ": 82547,
    ".annot": 3315,
    "Ġcollection": 145225,
    "'.": 135497,
    "Ġsimilar": 12652,
    "Ġtaken": 85909,
    "(\"%": 1128,
    "Order": 33501,
    "']Ċ": 75487,
    "-md": 72735,
    "ĠTH": 83902,
    "aced": 140884,
    "Ġisn": 33528,
    "/j": 28375,
    "Ġson": 49598,
    "graph": 23724,
    "ĠInteger": 151257,
    "Ġnecess": 6086,
    "reen": 18333,
    "Ġum": 37452,
    "Ġ\\<": 105429,
    "Ġmoment": 77551,
    "Ġbring": 52238,
    "Ġindic": 31728,
    "ysis": 150504,
    "Level": 125626,
    "verse": 109559,
    "urrenc": 27178,
    "_test": 33207,
    "Ġentire": 112541,
    "Down": 107459,
    "Ġ}ĊĊĊ": 34395,
    "(result": 112527,
    "ĠRead": 27588,
    "Ã¨": 141066,
    "Mod": 74342,
    "Ġtrying": 122859,
    "\"),Ċ": 22167,
    "Ġmember": 115463,
    "ĠCor": 27771,
    "ODO": 79548,
    "-control": 133219,
    "untime": 129012,
    "ĠSim": 145206,
    "Dialog": 43878,
    "plot": 89066,
    "_on": 53325,
    "Ġphys": 96143,
    "}/": 131890,
    "Ġnamespace": 66357,
    "ĉčĊ": 35098,
    "acc": 119521,
    "Player": 142221,
    "ARE": 84893,
    "Ġfoot": 149250,
    "Ġboard": 77741,
    "part": 43652,
    "Ġsus": 148571,
    "wise": 78053,
    "ĠMc": 13881,
    "Ġpush": 70423,
    "ATA": 118675,
    "Ġplease": 78329,
    "ried": 88399,
    "weet": 97023,
    "bit": 97851,
    "ided": 31522,
    "VE": 63074,
    "ĠSw": 9119,
    "UB": 21923,
    "Ġtypes": 112821,
    "edia": 113751,
    "Ġclos": 114205,
    "acebook": 119780,
    "When": 142214,
    "Ġedit": 84625,
    "igger": 106117,
    "Ġenerg": 138213,
    "Container": 68452,
    "Ġphot": 101806,
    "ĠCount": 43253,
    "ĠEurope": 40438,
    ".Is": 122788,
    "ĠRuss": 51309,
    "peed": 66539,
    "ĠStr": 97261,
    "Ġpy": 79868,
    "Ġcult": 31072,
    "Ġdefined": 132166,
    "ccount": 79547,
    "Ġobt": 131320,
    ".Location": 142607,
    "Ġthread": 48356,
    "ille": 30478,
    "Ġinstead": 24045,
    "strong": 24426,
    "ĠSec": 112061,
    "URE": 50643,
    "Ġidea": 12912,
    ".se": 46387,
    "emy": 273,
    "selected": 110750,
    "Connection": 26840,
    "acing": 14648,
    "thread": 110693,
    ".next": 146113,
    "Ġcoll": 137180,
    "Ġfilm": 112185,
    "istic": 77074,
    "Ġcompet": 134937,
    "Ġconn": 120664,
    "though": 111573,
    "Ġcompan": 80082,
    "ocket": 117251,
    "Ġteach": 98698,
    "=(": 140825,
    "Ġphone": 138529,
    "Ġactive": 13345,
    "delete": 11596,
    "tries": 26640,
    "Ġmo": 68974,
    "Ġdeath": 29512,
    "});ĊĊ": 114528,
    "ocol": 129634,
    "Widget": 84609,
    "Ġarticle": 130227,
    "rodu": 129307,
    "andid": 112284,
    "Ñĭ": 26104,
    "ĠCr": 145568,
    "ka": 39932,
    "():": 116295,
    "lood": 5773,
    "ĉĉĉĊ": 22199,
    "Ġalmost": 47563,
    "Ġsell": 51226,
    "ervlet": 123699,
    "rip": 63696,
    "Unit": 29907,
    "Ġapplic": 115786,
    "Ġconnect": 46531,
    "Ġfeature": 25635,
    "Ġvia": 40883,
    "'),": 54590,
    "Ġlim": 51026,
    "ĠĠĠĠĠĠĠĠĠĠĠĠĠĠĠĠĠĠĠĠĠĠĠĠĠĠĠĠĠĠĠĠĠĠĠĠĠĠĠĠĠĠĠĠĠĠĠ": 26930,
    "ĠGu": 77386,
    "Engine": 103632,
    "Ġens": 13306,
    "Ġenvironment": 82359,
    "block": 24674,
    "HERE": 148671,
    "NULL": 117883,
    "gy": 47370,
    "tag": 19156,
    ")).": 109642,
    "exp": 40636,
    "Ġcompl": 108837,
    "Ġinstall": 23539,
    "Ġcomplete": 21655,
    "queue": 28701,
    "atural": 46929,
    "Ġgeneral": 21195,
    "thon": 59209,
    "Ġasked": 11758,
    "ores": 120785,
    "(res": 35333,
    "Ġreserved": 4833,
    "SP": 116404,
    "ĠâĢ¦": 9338,
    "ÅĤ": 143155,
    "Ġsignific": 147897,
    "Off": 127816,
    "ĠĠĠĠĠĠĠĠĠĠĠĠĠĠĠĠĠĠĠĠĠĠĠĠĠĠĠĠĠ": 91842,
    "ĠAg": 12088,
    "ĠJust": 96470,
    "ĠError": 108453,
    "Ġinfl": 114430,
    "adata": 34684,
    "Ġicon": 79845,
    "asks": 105467,
    "''": 7468,
    "_LO": 2867,
    "?.": 241,
    "account": 47528,
    "Ġ(*": 86371,
    "')ĊĊ": 109310,
    "rap": 5894,
    "_var": 132766,
    "ĠFOR": 89911,
    "Ġparty": 135688,
    "ĠYour": 25843,
    "cat": 94901,
    "stry": 58683,
    ".new": 108031,
    "boot": 88413,
    "ĠNov": 149303,
    "Ġvector": 35339,
    "Ġnormal": 39641,
    "Ġfurther": 135834,
    "Repository": 78736,
    "Ġdatabase": 119246,
    "attle": 68576,
    "Ġmusic": 86748,
    "Ġspeed": 92350,
    "Ġdoc": 113353,
    "process": 127685,
    "IGHT": 19785,
    ".parse": 109805,
    "Ġtaking": 46125,
    "Ġviol": 38481,
    "ceed": 57612,
    "ĠAfter": 16684,
    "Ġforward": 22863,
    "Ġcrit": 40727,
    "\"/>Ċ": 32773,
    "rot": 27256,
    "Ġfailed": 81322,
    "efore": 102095,
    "Ġconcern": 100573,
    "oe": 148163,
    "ba": 35638,
    "Ġsender": 58722,
    "Ġterm": 61376,
    "has": 65687,
    "=\"#": 5288,
    "Ġpotential": 63767,
    "Num": 127254,
    "Ġpublished": 40623,
    ".close": 125998,
    "ĠImage": 45183,
    "straint": 138855,
    "UD": 105300,
    "ĠOb": 62743,
    "Ġprobably": 55258,
    "lim": 50262,
    "\":Ċ": 75765,
    "olume": 132392,
    "Ġconsum": 86132,
    "ague": 97859,
    "ensions": 8909,
    "Ġinvestig": 114212,
    "-year": 26630,
    "');": 34792,
    "-sm": 57608,
    "Ġenjoy": 78643,
    "orig": 83665,
    "ering": 73941,
    "cp": 68257,
    "leased": 105576,
    "plements": 137940,
    "Ġreturns": 77717,
    "pat": 24340,
    "BO": 63785,
    "ĠHouse": 124487,
    ".Label": 43289,
    "Ġweight": 130159,
    "ighb": 83850,
    "Ġconditions": 75211,
    "Ġexception": 55196,
    "description": 82434,
    "Ġtrad": 8028,
    "-to": 141477,
    "Ġ{}": 55812,
    "Ġmodule": 127005,
    "END": 85869,
    ".ap": 5461,
    ".props": 34144,
    "Ġconstructor": 97855,
    "aves": 43392,
    "Ġfavor": 57469,
    "ĠNow": 23063,
    ";i": 75257,
    "ĠMain": 142553,
    "_k": 48025,
    "eries": 87807,
    "âĢĻll": 41915,
    "transform": 31246,
    "imestamp": 32106,
    "Pre": 36920,
    "Ġmer": 20021,
    ".res": 149449,
    "stant": 77686,
    "Location": 65680,
    "_NAME": 87832,
    "Ġloss": 120716,
    "ĠĊĊ": 65582,
    "net": 107853,
    "Ġengine": 11819,
    "Block": 61752,
    "Ġissues": 79957,
    "Ġparse": 39913,
    "ĠBar": 48872,
    "Ġstay": 98629,
    "ĠJSON": 118058,
    "Ġdom": 13072,
    "airs": 73238,
    "wner": 148236,
    "Ġlower": 29791,
    "\",čĊ": 19616,
    "ĠDem": 131403,
    "ufact": 130344,
    "Ġps": 56585,
    "Ġperfect": 113852,
    "RL": 83377,
    "Ġeduc": 113968,
    "ls": 96455,
    "emory": 140149,
    "ARRANT": 119843,
    "uge": 130528,
    "Ġexact": 9098,
    ".key": 60584,
    "alled": 150914,
    "ech": 137925,
    "ief": 7759,
    "\\/": 8158,
    "oke": 45519,
    "Ġformer": 108789,
    "alloc": 51281,
    "Ġsix": 107301,
    "ida": 67482,
    "Ġmargin": 141547,
    "Ġheart": 14722,
    "ald": 2265,
    "pack": 54850,
    ".getElementById": 52141,
    "ĠWARRANT": 74375,
    "Ġrather": 112425,
    "Ġbuilding": 96750,
    "erman": 142343,
    "lice": 2961,
    "Ġquestions": 123604,
    "izes": 135892,
    "lege": 17585,
    "irectory": 124808,
    "Ġje": 64707,
    "Ġcas": 70869,
    "props": 123511,
    "utf": 133508,
    "Ġsecurity": 141420,
    "Ġhowever": 17560,
    "weight": 87240,
    "Ġinside": 491,
    "Ġpresident": 64459,
    "Char": 141422,
    "ĠWITH": 83631,
    ".map": 8470,
    "Ġgraph": 71044,
    "Ġtag": 64624,
    "_status": 123476,
    "Ġattempt": 91387,
    "opp": 6358,
    "uses": 80032,
    "ĉconst": 140072,
    "Ġround": 64162,
    ",$": 117606,
    "Ġfriends": 334,
    "Email": 68454,
    "?>": 6804,
    "Resource": 34738,
    "KEY": 36380,
    "osp": 7253,
    ".query": 32853,
    "ĠNorth": 24955,
    "ables": 106450,
    "istrib": 43494,
    "_class": 125955,
    "ello": 56639,
    "That": 90941,
    "Ðº": 109952,
    "pecially": 98054,
    "ĠPresident": 31541,
    "Ġcampaign": 89980,
    "Ġalt": 38028,
    "area": 76093,
    "Ġchall": 90792,
    "Ġopport": 31137,
    ".Con": 24144,
    "Ġenergy": 44946,
    "like": 70153,
    ".string": 43730,
    "ington": 64448,
    ")*": 51277,
    "yy": 10926,
    "Ġprofession": 105312,
    "irth": 111069,
    "Ġseg": 135911,
    "æľ": 53725,
    "Ġhor": 2866,
    "iers": 15184,
    "can": 48010,
    "Ġbehind": 20092,
    "Product": 72345,
    "fg": 65856,
    "ĠSk": 120697,
    ".jpg": 21372,
    "?:": 44183,
    "];ĊĊ": 19563,
    "Ġcallback": 45991,
    "ĠHttp": 134494,
    "ÑĮ": 76901,
    "long": 18851,
    "MS": 35606,
    "ATH": 100035,
    "Ġraise": 31205,
    "Ġwanted": 76680,
    "rown": 95145,
    "utor": 76969,
    "lt": 4913,
    "]=": 94401,
    "eline": 124045,
    "MA": 54918,
    "Ġsepar": 78208,
    "cs": 62482,
    "semb": 57123,
    "Dis": 33681,
    "bserv": 84571,
    "ĠWill": 109779,
    "Ġpolicy": 94062,
    "Ġthird": 102205,
    "phone": 69884,
    "Ġbed": 9736,
    "/g": 74076,
    ".__": 55129,
    "ĠInc": 80970,
    "izing": 9020,
    ".remove": 68925,
    "instance": 83178,
    ".type": 42528,
    "Ġserv": 120526,
    "Each": 78384,
    "Ġhar": 121846,
    "ĠMessage": 95523,
    "(key": 57719,
    "SELECT": 68297,
    "Pos": 15309,
    "));čĊ": 66666,
    "Ġrecomm": 129974,
    "Ġtraining": 106453,
    "ĠEnt": 61938,
    "ĠChar": 48113,
    "icht": 88357,
    "(file": 19194,
    "Ġprior": 127241,
    "Game": 10072,
    "Ġexit": 24835,
    "Params": 110313,
    ".core": 66202,
    "PC": 88887,
    "nes": 116838,
    "anced": 12230,
    "(request": 99112,
    "Password": 62993,
    "}>Ċ": 55013,
    "Ġmag": 24620,
    "Ġrelease": 42713,
    "Ġshall": 61236,
    "udent": 2724,
    "ĠSouth": 77956,
    "ando": 46226,
    ":'": 60124,
    ".TabIndex": 60517,
    "sk": 119387,
    "anner": 6133,
    "isset": 13029,
    "Ġoutside": 106237,
    "ledge": 75434,
    "Ġå": 76763,
    "ĠRob": 149699,
    "Ġimm": 26970,
    "!Ċ": 63189,
    "ĠWeb": 75525,
    "Des": 23087,
    "BC": 14232,
    "ancial": 27635,
    "Route": 42410,
    "Dec": 80917,
    "ferences": 8174,
    "Ġpurch": 62164,
    "ĠModel": 83946,
    "ctor": 24886,
    "gn": 27270,
    "_start": 65075,
    "_un": 149727,
    ".*": 48695,
    "ises": 35771,
    "Ġground": 40800,
    "Ġunique": 114603,
    "Ġbeaut": 27391,
    "{\"": 10064,
    "Ġpour": 34545,
    "ĠOct": 83744,
    "Ġtree": 44990,
    "sets": 24887,
    "_res": 107286,
    "')->": 148661,
    "_reg": 99041,
    "(\"\\": 117872,
    "Ġbyte": 47052,
    "Bl": 107028,
    "Ġdating": 140764,
    "Ġmatter": 83434,
    "ĠRem": 42110,
    "Ġ'../": 129265,
    "ĠAug": 147991,
    "ĠLa": 82288,
    "Ġ$(": 120768,
    "ournal": 471,
    "iam": 51173,
    "Ġshows": 140979,
    "write": 20201,
    "Ġball": 145717,
    "Ġsimply": 111500,
    "Ġfast": 109243,
    "Ġmemory": 115672,
    "ASS": 51578,
    "ĠOf": 36109,
    "oved": 71692,
    "ante": 5612,
    "aul": 68810,
    "istry": 137038,
    ")));Ċ": 111569,
    "Ġfit": 17720,
    "<string": 112146,
    "Ġpolitical": 60653,
    "ancel": 83903,
    "_.": 108731,
    "card": 131192,
    ".current": 111875,
    "och": 66353,
    "_image": 102391,
    "\\t": 100689,
    "#Ċ": 81293,
    "(L": 993,
    "Ġindustry": 47489,
    "coming": 139676,
    "Ġextra": 100344,
    "Ġreported": 26206,
    ".start": 58856,
    "Ġresources": 135780,
    "Ġimg": 3603,
    "flow": 125019,
    "_EX": 146841,
    "(null": 21257,
    "ĠPre": 76410,
    "Ġwrong": 13141,
    "interface": 32035,
    "Parameter": 63416,
    "ners": 150373,
    "á»": 87822,
    "ture": 54413,
    "ersist": 19442,
    "ountry": 113776,
    "Ġseems": 8422,
    "alance": 46301,
    "dest": 9892,
    "ĉString": 3379,
    "Ġmaint": 14026,
    "Ġunit": 89708,
    "acters": 89443,
    "ĠTR": 85329,
    "iful": 40105,
    "exports": 115395,
    "project": 64048,
    "Application": 2174,
    "legate": 16780,
    "Ġtakes": 127269,
    "term": 12815,
    "Ġetc": 10436,
    "uster": 60328,
    "Ġappear": 77740,
    "address": 20596,
    "Ġfem": 80924,
    "hs": 142774,
    "Ġhom": 106147,
    ",-": 31221,
    "Ġdifficult": 88131,
    "Ġcoming": 34755,
    "Open": 92653,
    "Ġsettings": 69694,
    "ĠWar": 20794,
    "ĠThen": 100330,
    "Ġautom": 107722,
    "ĠFoundation": 23386,
    "Ġquite": 37379,
    "Description": 56740,
    "Ġblog": 54326,
    "iqu": 143562,
    "PS": 109941,
    "_field": 100192,
    "Json": 90192,
    "SSION": 53598,
    "ĠSch": 114209,
    "ĠLO": 65233,
    "Ġdescri": 45794,
    "Ġeveryone": 134702,
    "Ġpretty": 151360,
    "Ġlonger": 22745,
    "Ġmenu": 31197,
    "Ġcurrently": 39283,
    "sec": 63224,
    "Ġrelationship": 130279,
    "################################": 79685,
    "ĠMap": 69534,
    "aset": 59278,
    "Ġparameters": 120121,
    "Ġcrush": 28703,
    "\"čĊ": 121924,
    "ILITY": 250,
    "igration": 112336,
    "Ġcout": 118906,
    "total": 70919,
    "Ġnames": 20497,
    "ndef": 133206,
    "\");": 63871,
    "riend": 33777,
    "ynamic": 106032,
    "Ġeffort": 4186,
    "Ġactual": 54147,
    "Ġfields": 142712,
    "OUN": 37534,
    "ters": 73472,
    "Ġfix": 121647,
    "_model": 117566,
    "Ġcases": 39661,
    "CA": 116695,
    "My": 41214,
    "Interface": 121146,
    "ĠSE": 105099,
    "]]": 99062,
    "alle": 85474,
    "ĠNational": 101426,
    "ĠArrayList": 128217,
    "inline": 19803,
    ".V": 25771,
    "ara": 8955,
    "refix": 7746,
    "asc": 136361,
    "Reader": 103106,
    "ĠÐ¿": 74455,
    "astic": 125198,
    "(()": 117061,
    "Cl": 83749,
    ".annotation": 98970,
    "Ġperformance": 58544,
    "aily": 65979,
    ".toString": 95601,
    ".net": 147916,
    "views": 29338,
    ".end": 55671,
    "ayers": 71722,
    "late": 50994,
    "ĠApr": 61933,
    "ederal": 150360,
    "'])": 53335,
    ".body": 11135,
    "Ġhigher": 134691,
    "_fl": 4326,
    "cr": 55310,
    "alert": 144965,
    "_node": 90458,
    "ĠGoogle": 27984,
    "Ġitself": 103964,
    "Auth": 78325,
    "urrency": 101746,
    "Ġsignificant": 36144,
    "append": 17795,
    "Ġrespect": 149880,
    "strap": 43452,
    "Ġuna": 72905,
    "riteria": 104926,
    "PORT": 133803,
    ".apache": 97799,
    "Output": 44430,
    "Ġprogress": 64420,
    "Ġmid": 128383,
    "ĠMicrosoft": 44677,
    "Ġresource": 33553,
    "ablish": 60022,
    "Ġdim": 44195,
    ".load": 38049,
    ".App": 59596,
    "Ġdirection": 88966,
    "Ġadditional": 79694,
    "ĠĠĠĠĠĠĠĠĠĠĠĠĠĠĠĠĠĠĠĠĠĠĠĠ": 124321,
    "Ġnumbers": 17214,
    "Ġcompanies": 84888,
    ".Th": 29136,
    "Ġsound": 41683,
    "username": 9871,
    "Ġstatement": 123038,
    "Ġalert": 37931,
    "Ġcontract": 62851,
    "home": 138288,
    "_length": 122798,
    ".Component": 11098,
    "ev": 52909,
    ".Ex": 151627,
    "ï¼ļ": 12737,
    "\";": 101542,
    "ĠHigh": 139614,
    "Ġ)ĊĊ": 119632,
    "ĠPoint": 122890,
    "oph": 88994,
    "Ġlines": 46201,
    "->_": 57141,
    "\")ĊĊ": 71672,
    "ox": 1263,
    "application": 79452,
    "Ġ]Ċ": 26554,
    "ĊĊĊĊĊĊ": 111938,
    "Ġsoon": 126716,
    "ctions": 51089,
    "inger": 96958,
    "Ġjoin": 95844,
    "ĠPe": 53888,
    "Ġë": 106838,
    "Ġlas": 117038,
    ".E": 2106,
    "css": 145584,
    "/or": 130810,
    "ĠStart": 91170,
    "ĠTO": 49676,
    "Ġsubs": 110221,
    "conn": 45810,
    "components": 136259,
    "DEBUG": 57196,
    "quare": 114307,
    "Function": 87224,
    "endar": 59544,
    ".index": 16814,
    "Ġfill": 116604,
    "ÄĻ": 75391,
    "Ġchoose": 8179,
    "how": 40615,
    "ĠAmerica": 76693,
    "assets": 4174,
    "------------": 106641,
    "ĠValue": 106899,
    "Ġoffice": 112588,
    "Ġveh": 95255,
    "Ġtransform": 55958,
    "ĠArt": 66884,
    "Ġinde": 69267,
    "Ġfn": 59213,
    "Ġimplements": 87635,
    "ango": 112168,
    "plete": 65633,
    "+\"": 87724,
    "tmp": 24149,
    "amily": 72684,
    "Ġhash": 128221,
    "missions": 12422,
    "EST": 10113,
    "gt": 108491,
    "Provider": 94019,
    "ĠĠĠĠĠĠĠĠĠĠĠĠĠĠĠĠĠĠĠĠĠĠ": 2739,
    "Ġflag": 97200,
    "Ġparticip": 35627,
    "den": 108813,
    "ĠReturns": 35124,
    "Ġnote": 105345,
    "Ã¼r": 91363,
    "pm": 106670,
    "ideos": 28729,
    "Ġspecified": 11574,
    "ĠEN": 24192,
    "ester": 77476,
    "olid": 109202,
    "Ġupon": 41965,
    "(std": 145509,
    "ĉv": 105791,
    "Ġ'\\": 22307,
    "uz": 45661,
    "Ġvert": 119543,
    "Ġvict": 84301,
    "ĉself": 133716,
    "Ġ\"$": 105042,
    ".k": 139887,
    "Ġgroups": 1302,
    "github": 150706,
    "lang": 2210,
    "Ġmut": 24536,
    "TO": 142042,
    "Ġve": 109194,
    "ĠPlease": 21097,
    ";ĊĊĊ": 13446,
    "access": 129207,
    "Ġ{\"": 146395,
    "rea": 138273,
    "Ġrisk": 103591,
    "icker": 87035,
    "oggle": 101849,
    "ĉwhile": 97198,
    "ANG": 55467,
    ".send": 38862,
    "Ġwoman": 12077,
    "Ġgets": 20598,
    "Ġign": 151105,
    "ĠId": 30113,
    "_log": 32830,
    "ONE": 62391,
    "Ġevid": 43564,
    "ĠHar": 89306,
    "_sub": 125940,
    "Ġendl": 55075,
    "Ġincluded": 33176,
    "());ĊĊ": 12851,
    "ĠAp": 86646,
    "igr": 26440,
    "Ġsem": 100599,
    "ĠBlack": 7793,
    "doc": 25109,
    "_table": 55306,
    "ĠĠĠĠĠĠĠĠĠĠĠĠĠĠĠĠĠĠĠĠĠĠĠĠĠĠĠĠĠĠĠĠĠĠĠĠĠĠĠĠĠĠĠĠĠĠĠĠĠĠĠĠĠĠĠĠĠĠĠĠĠĠĠĠ": 114905,
    "-up": 48202,
    "Ġcause": 56259,
    "Ġ..": 29194,
    "Ġvan": 122628,
    "_dict": 12695,
    "Ġfocus": 53125,
    "IND": 87929,
    "CESS": 87972,
    ".Log": 38081,
    "Ġmultiple": 1757,
    "ido": 116331,
    "Ġregard": 95259,
    "-M": 132613,
    "andler": 5808,
    "ourse": 48089,
    "Ġdeg": 74111,
    ".U": 135151,
    "Ġaddition": 63138,
    "Ġvarious": 50353,
    "Ġreceive": 12014,
    "ÐµÐ½": 71608,
    "ĠHT": 115871,
    "Obj": 105296,
    "DF": 43850,
    "Ġincrease": 16981,
    "ĠOpen": 150785,
    "];": 375,
    "Ġcommit": 19333,
    "?Ċ": 138791,
    "ategories": 111135,
    "atory": 39308,
    "ship": 86818,
    "ĠMich": 940,
    "Ġhtml": 72748,
    "romise": 112680,
    "Ġleave": 99240,
    "Ġstrateg": 136402,
    "aven": 121195,
    "ĠConsole": 76245,
    "known": 61625,
    "-n": 83641,
    "_LE": 130903,
    ".component": 100017,
    "Ġbre": 36611,
    "Session": 138871,
    "iance": 62520,
    "Ġalign": 87011,
    "typedef": 109552,
    "_result": 63069,
    "ĠWHERE": 86740,
    ".split": 38991,
    "Ġreading": 38958,
    "FAULT": 58960,
    "Ġclo": 149862,
    "Ġnotice": 57698,
    "_pr": 17364,
    "arter": 17933,
    "Ġlock": 76141,
    "Ġstandard": 62130,
    "etic": 14161,
    "ellow": 132851,
    "Ġpadding": 106222,
    "ĠHis": 89071,
    "Ġstates": 33797,
    "_cast": 150819,
    "(P": 70305,
    "aa": 32116,
    "Ġinternal": 76865,
    "ean": 25385,
    "ĠPRO": 131435,
    "ĠKey": 50778,
    "Ġespecially": 50393,
    "ming": 43277,
    "Ġcross": 44107,
    "Ġnational": 66650,
    "_object": 94505,
    "filter": 125259,
    "Ġscript": 62215,
    ".update": 30639,
    "_i": 44607,
    "ĠAssert": 122000,
    "/core": 41975,
    "%%%%": 104106,
    "Ġproblems": 127995,
    "istor": 60690,
    "Ġ.=": 60804,
    "Ġarch": 113508,
    "Ġwritten": 48714,
    "Ġmilit": 140688,
    "MENT": 57994,
    ".ch": 105499,
    "cape": 7374,
    "ĠMus": 151446,
    "_config": 87809,
    "ĠAPI": 127475,
    "foot": 24351,
    "Ġimages": 122775,
    "endl": 126100,
    ".In": 47021,
    "First": 38945,
    "Ġplatform": 73964,
    ".prot": 143194,
    "Option": 22070,
    "ste": 15966,
    "ĠTODO": 64712,
    "Ġforce": 33258,
    ".cont": 124305,
    "ĉecho": 81397,
    "ĠDav": 6889,
    "Ptr": 90147,
    "(B": 150486,
    "RT": 104443,
    "ĠBase": 40911,
    "]['": 149386,
    "Ġannounc": 94458,
    "console": 88919,
    "ĠPy": 54009,
    "ds": 28689,
    ".as": 143486,
    "Ġprevent": 79447,
    "apan": 109487,
    "Ġ{'": 124903,
    "}</": 72283,
    "ĠService": 92414,
    "ĠSen": 85104,
    "ador": 6363,
    "profile": 45496,
    "Top": 20535,
    "Ġiter": 96393,
    "po": 77166,
    "IES": 60675,
    "JSON": 64863,
    "IE": 148377,
    "iant": 5986,
    "ãĢģ": 129871,
    "_j": 90723,
    "ĠSept": 142352,
    "_map": 76704,
    "bum": 3612,
    "(context": 138732,
    "ĠHome": 26491,
    "ians": 14380,
    "GB": 142811,
    "Ġliving": 29760,
    "Ġpattern": 26727,
    "(input": 129407,
    "icient": 92641,
    "Core": 13627,
    "Ġentity": 130071,
    "Ġinteg": 56472,
    "Changed": 85021,
    "Ġuseful": 1509,
    ".info": 56154,
    "Ġtool": 70133,
    "(item": 67314,
    "Ġok": 66421,
    "Ġfeed": 63079,
    "IX": 13611,
    "Ã©s": 47257,
    "ĠNews": 63806,
    "remove": 94088,
    "erry": 8608,
    "ĉĉĉĉĉĉĉĉĉ": 60244,
    "ipment": 32183,
    "ares": 145819,
    "Do": 51952,
    "Current": 2421,
    ".content": 54239,
    ".Group": 123532,
    "ustral": 94320,
    "ĠÑģ": 131498,
    "})": 112316,
    "Ġpopular": 119657,
    "Ġstre": 11427,
    "Ġmethods": 125942,
    "_ERROR": 9920,
    "Left": 55552,
    "cal": 20399,
    "bsp": 137850,
    ".ToString": 100850,
    "Ġdir": 50455,
    "Ġallowed": 150336,
    "Ġimpact": 79719,
    "\")]Ċ": 29828,
    ".config": 119041,
    "Ġelements": 126957,
    "Ġprote": 129076,
    "Ġtrain": 43203,
    ".tr": 145710,
    "rs": 114615,
    "ĠRepublic": 15540,
    "ĠTask": 144612,
    "aries": 104582,
    "(D": 86648,
    "(get": 96067,
    "âĢ¦ĊĊ": 134423,
    "Ġrelated": 82132,
    "Ġvers": 66076,
    "Ġsil": 142211,
    "Ġ\"\";Ċ": 3352,
    "Ġcmd": 22896,
    "Ġtechnology": 148108,
    ".width": 100366,
    "Float": 64512,
    "ĠUse": 119558,
    "Body": 43364,
    "should": 140544,
    ".join": 118101,
    "Font": 133905,
    "llum": 81865,
    "ycle": 70474,
    "ĠBrit": 73213,
    "Ġmit": 117286,
    "Ġscale": 73645,
    "Ġ(_": 11446,
    "ernel": 69701,
    "\"))Ċ": 151289,
    "Ġscore": 131857,
    "/v": 57208,
    "Ġstudent": 26260,
    "UC": 52944,
    ".show": 33602,
    "Ġaverage": 5415,
    "Enabled": 55750,
    "(ex": 93204,
    "common": 39684,
    "imation": 86956,
    ":@\"": 32582,
    "chie": 94796,
    "Ġ...ĊĊ": 54516,
    "river": 57901,
    "ĠMarch": 70399,
    "category": 26301,
    "fin": 120895,
    "Ġcourt": 42314,
    "Ð²": 8557,
    "Server": 61852,
    "Ġcontainer": 74872,
    "-st": 86384,
    "_for": 80658,
    "Ġparts": 23889,
    "Ġdecision": 30480,
    "obs": 67647,
    "oub": 111347,
    "mitted": 137301,
    "Ġ$('#": 92458,
    "Ġsaw": 131275,
    "Ġapproach": 113297,
    "ICE": 5466,
    "Ġsaying": 122662,
    "Ġanyone": 14183,
    "meta": 57334,
    "SD": 86693,
    "Ġsong": 38310,
    "display": 116360,
    "Oper": 65834,
    "outes": 138964,
    "Ġchannel": 53868,
    "Ġchanged": 50767,
    "Ãª": 39639,
    "Ġfinally": 100224,
    "_number": 111062,
    "Please": 104201,
    "à¤": 128324,
    "oring": 146118,
    "-re": 101848,
    "Ġkill": 74185,
    "Ġdrug": 128990,
    "window": 84147,
    "Ġconvert": 134452,
    "ombre": 147152,
    "Ġways": 53395,
    "Helper": 18520,
    "ĠFirst": 34578,
    "(__": 77344,
    "urity": 141471,
    "ĠWindows": 144921,
    "ees": 133009,
    "Ġmat": 5875,
    "rapper": 106635,
    "Ġplus": 10815,
    "anges": 49591,
    "\"].": 76294,
    "azon": 145850,
    "/t": 102307,
    "lat": 70002,
    "aste": 116978,
    "Ġprofile": 70820,
    "Ġready": 16455,
    "#ifndef": 141624,
    "rote": 69445,
    "Ġsense": 141810,
    "Gener": 49172,
    "ĠConfig": 76037,
    "omy": 135925,
    "ĠJune": 45465,
    "Ġlatest": 17827,
    "Ġsaf": 56542,
    "Ġregion": 135483,
    "Ġdeep": 53454,
    "witch": 32299,
    "ĠPark": 97172,
    "}`": 4686,
    "ĠFrom": 117573,
    "II": 19779,
    "Ġcv": 25570,
    "Ġreach": 7282,
    "Ġcounter": 131608,
    "ĠWork": 136281,
    "ĠURL": 19052,
    "ĠUpdate": 26561,
    "',čĊ": 126305,
    "Ġimmedi": 98148,
    "close": 139285,
    "ados": 111218,
    "ferred": 51736,
    "Ġweeks": 52493,
    "urg": 55271,
    "Ġdamage": 150275,
    "Ġlost": 11827,
    "ani": 62788,
    "_lo": 92385,
    "Ġhimself": 43376,
    "Ġdog": 23598,
    ")]Ċ": 46663,
    "ï¿": 142156,
    "pir": 113610,
    "tt": 5708,
    "Ġpaper": 115066,
    "Ġthems": 64111,
    "second": 8136,
    "Ġstaff": 44563,
    "ĠInput": 151311,
    "\"+": 12136,
    "ĠFacebook": 119198,
    "Ġalloc": 133825,
    "Ġsched": 114809,
    "ACE": 117787,
    "Ġthemselves": 112525,
    "ĠComponent": 38912,
    "Ġdriver": 80518,
    "ja": 90824,
    "(path": 129002,
    "Ġcategory": 88492,
    "alls": 23574,
    "pu": 85659,
    "lluminate": 64466,
    "ĠAction": 49416,
    ".button": 82030,
    "ĠGL": 146779,
    "istics": 138655,
    "Ġoil": 148340,
    "Ġstock": 108801,
    ">'": 59314,
    "Ġdead": 149737,
    "VAL": 130827,
    "QUE": 35176,
    "************************************************************************": 53520,
    "Ġcharg": 103548,
    "Return": 142311,
    "Ġful": 92916,
    "dom": 14334,
    "Ġrules": 18725,
    "Ġmodify": 112558,
    "Ġeval": 80771,
    "ham": 53815,
    "atement": 67281,
    "\\<": 90177,
    "ula": 6238,
    "=False": 54252,
    "RA": 531,
    "Ġcontains": 75080,
    "Ġstack": 39755,
    "mar": 111623,
    "Ġ{}Ċ": 5269,
    "Ġundefined": 21083,
    "Ass": 131798,
    "ĠChina": 77127,
    "vey": 126768,
    "*Ċ": 15678,
    "Ġplaying": 25773,
    ")/": 51402,
    "actor": 48982,
    "Ġbottom": 126270,
    "lier": 85052,
    "ĠNumber": 88705,
    "Ġcouple": 48517,
    "DC": 137577,
    "ĠSO": 34712,
    "gor": 7569,
    ".setText": 95460,
    "success": 14016,
    "command": 19879,
    "Filter": 111903,
    "ĠOur": 39831,
    "_item": 20789,
    "Ġctx": 30044,
    "Ġroad": 50898,
    "Version": 10334,
    "case": 58418,
    "urt": 60487,
    "avior": 68178,
    "ych": 131349,
    "sembly": 2671,
    "ĠProduct": 57712,
    "Ġheld": 92663,
    "afe": 132033,
    "Ġincludes": 111343,
    "<quote": 139848,
    "Ġavoid": 131197,
    "ĠFin": 121546,
    "ĠMod": 54217,
    "Ġtab": 82926,
    "ano": 20309,
    "Ã±": 143816,
    "ipping": 86847,
    "-e": 141599,
    "Ġinsert": 42330,
    "target": 128123,
    "chan": 110800,
    ".Model": 51400,
    "IME": 64998,
    "\\Ċ": 87377,
    "Ġmachine": 53803,
    "avy": 23594,
    "ĠNO": 135926,
    "ĠInter": 76603,
    "Ġoperation": 97973,
    "modal": 133402,
    "Tag": 13900,
    "]:": 134531,
    "Ġproduction": 80887,
    "Ġareas": 76800,
    "Ġren": 17914,
    "_from": 80247,
    "nbsp": 111493,
    "Ġoperator": 119952,
    "men": 135422,
    "apped": 144828,
    "_per": 76369,
    "zen": 78051,
    "(\".": 138681,
    ".save": 102564,
    "=\"{{": 145035,
    "Ġtor": 119423,
    "(response": 121380,
    "Ġcandid": 27775,
    "Ġconv": 133101,
    "ailed": 88718,
    "ĠLib": 113258,
    "comp": 122930,
    "ura": 110273,
    "ï¿½": 134492,
    "ĠHere": 31527,
    "Ġargument": 148683,
    "hood": 112307,
    "Ġestablish": 949,
    "ography": 9978,
    "ĠonClick": 45728,
    "ambda": 33188,
    "Ġsch": 47269,
    "Ġmovie": 74907,
    "Ġsec": 65506,
    "Ġactivity": 132336,
    "Ø§": 135948,
    "Ġsql": 25464,
    "_all": 14979,
    "incip": 146732,
    "Ġprovides": 23005,
    "Ġsys": 67733,
    "acket": 46386,
    "Ġwasn": 126105,
    "Ġuses": 46709,
    "ĠFunction": 46639,
    ".google": 127906,
    "ĠResult": 50580,
    "Visible": 111411,
    "agma": 144050,
    "elcome": 68038,
    "ĠSy": 140381,
    "ĠCent": 3158,
    "ALSE": 142805,
    "aciÃ³n": 4436,
    "EXT": 139299,
    "Ġlicense": 110855,
    "ĠLong": 17708,
    "Ġaccom": 117300,
    "Ġability": 99489,
    ".height": 38565,
    "Active": 9196,
    "ological": 68208,
    "oly": 103177,
    ")),": 10190,
    ".Se": 106620,
    "Ġparameter": 18462,
    "prite": 150688,
    "ABILITY": 83449,
    ".service": 104060,
    "ĠGroup": 89650,
    "_query": 74680,
    "ĠItem": 339,
    "ining": 141068,
    "Ġjud": 91977,
    "ims": 101239,
    "fix": 99915,
    "inder": 88208,
    "agram": 138059,
    "Ġfunctions": 42740,
    "Ġexperi": 123388,
    "ĠEm": 38953,
    "Ġrot": 137264,
    "Ġpen": 115393,
    ".btn": 128037,
    "ĠAS": 33772,
    "#ifdef": 95213,
    "Ġchoice": 95505,
    "ĠPage": 1358,
    "_PRO": 111864,
    "QU": 109521,
    "åı": 143432,
    "antity": 8783,
    "ÂŃ": 119006,
    "words": 61298,
    "Ġreadonly": 142119,
    "Ġflex": 15203,
    "protected": 123721,
    "ĠAny": 115922,
    "Ġcharacters": 42964,
    "enced": 29514,
    "ĠJuly": 83594,
    "iler": 45030,
    "Card": 114336,
    "urance": 126467,
    "Ġrev": 54848,
    ".event": 64462,
    "aly": 41379,
    "Ġwonder": 111511,
    "ĠPort": 138495,
    "Ġlegal": 14102,
    "role": 143409,
    "Ġten": 143091,
    "Ġgoes": 62646,
    "MP": 108633,
    "white": 11941,
    "):čĊ": 61325,
    "))čĊ": 28261,
    "Ġreference": 121332,
    "Ġmis": 82093,
    "ĠProject": 104529,
    "icks": 52582,
    ">&": 68838,
    "CON": 129756,
    "Ġrepl": 141943,
    "Ġregular": 124187,
    "Storage": 95138,
    "ramework": 7734,
    "Ġgoal": 86551,
    "Ġtouch": 85922,
    ".widget": 96924,
    "Ġbuilt": 32143,
    "des": 133107,
    "Part": 150853,
    "(re": 13376,
    "Ġworth": 3360,
    "hib": 108173,
    "game": 126519,
    "ĠÐ²": 131134,
    "acion": 26773,
    "ĠWhite": 91493,
    "(type": 47299,
    "(`": 115017,
    "Ġnatural": 66116,
    "Ġinj": 149842,
    "Ġcalcul": 105159,
    "ĠApril": 34623,
    ".List": 128935,
    "Ġassociated": 110054,
    "ĉSystem": 49118,
    "~~": 22591,
    "=[": 100674,
    "Ġstorage": 2723,
    "Ġbytes": 98081,
    "Ġtravel": 45515,
    "Ġsou": 35889,
    "Ġpassed": 138569,
    "!=": 112227,
    "ascript": 26668,
    ".open": 34027,
    "Ġgrid": 111558,
    "Ġbus": 66630,
    "Ġrecogn": 117876,
    "Ab": 24336,
    "Ġhon": 127969,
    "ĠCenter": 17628,
    "Ġprec": 109337,
    "build": 22605,
    "HTML": 64999,
    "ĠSan": 121073,
    "Ġcountries": 140873,
    "aled": 85360,
    "token": 141125,
    "kt": 97864,
    "Ġqual": 147730,
    "Last": 147369,
    "adow": 125459,
    "Ġmanufact": 114477,
    "idad": 104875,
    "jango": 49153,
    "Next": 142466,
    "xf": 131117,
    ".a": 112639,
    "Ġporno": 148110,
    "ĠPM": 55718,
    "erve": 72073,
    "iting": 102052,
    "_th": 151029,
    "ci": 40785,
    "=None": 108099,
    "gs": 43941,
    "Ġlogin": 89474,
    "atives": 31181,
    "']);Ċ": 103744,
    "Äħ": 141484,
    "Ġill": 16848,
    "IA": 20443,
    "children": 74516,
    "DO": 1811,
    "Ġlevels": 37748,
    "Ġ{{": 71465,
    "Ġlooks": 120440,
    "Ġ\"#": 70598,
    "ToString": 129174,
    "Ġnecessary": 109412,
    "ĠĠĠĊ": 105084,
    "cell": 145632,
    "Entry": 133860,
    "Ġ'#": 60775,
    "Ġextrem": 101911,
    "Selector": 146802,
    "Ġplaceholder": 30277,
    "Load": 60539,
    "Ġreleased": 8536,
    "ORE": 965,
    "Enumer": 3646,
    "ĠTV": 68952,
    "SET": 100379,
    "inq": 62492,
    "Press": 80943,
    "ĠDepartment": 56871,
    "Ġproperties": 29327,
    "Ġrespond": 35047,
    "Search": 40660,
    "ael": 30867,
    "Ġrequ": 33562,
    "ĠBook": 52586,
    "/Ċ": 18145,
    "(st": 70766,
    "Ġfinancial": 145812,
    "icket": 110232,
    "_input": 67033,
    "Ġthreat": 59116,
    "(in": 84505,
    "Strip": 61276,
    "ìĿ": 85038,
    "Ã§Ã£o": 149523,
    "Ġevidence": 100550,
    "));": 77827,
    "ĠBro": 28048,
    "Ġ[];Ċ": 105540,
    "Ġou": 35281,
    "buf": 97976,
    "Script": 14004,
    "dat": 107087,
    "Ġrule": 117888,
    "#import": 53348,
    "=\"/": 114621,
    "Serial": 38785,
    "Ġstarting": 3043,
    "[index": 82014,
    "ae": 139286,
    "Ġcontrib": 98603,
    "session": 115232,
    "_new": 125422,
    "utable": 139048,
    "ober": 135751,
    "Ġ\"./": 111367,
    "Ġlogger": 26005,
    "Ġrecently": 92710,
    "Ġreturned": 130509,
    "ččĊ": 113616,
    ")))Ċ": 37253,
    "itions": 102670,
    "Ġseek": 98111,
    "Ġcommunic": 122099,
    "Ġ\".": 91743,
    "Ġusername": 129086,
    "ECT": 39414,
    "DS": 30758,
    "Ġotherwise": 113438,
    "ĠGerman": 91981,
    ".aw": 31792,
    "Adapter": 75947,
    "ixel": 57675,
    "Ġsystems": 57758,
    "Ġdrop": 32769,
    "Ġstructure": 6385,
    "Ġ$(\"#": 124650,
    "encies": 123856,
    "anning": 52380,
    "ĠLink": 86167,
    "ĠResponse": 26006,
    "Ġstri": 13348,
    "Å¼": 126480,
    "ĠDB": 51513,
    "æĹ": 50139,
    "android": 57613,
    "submit": 131913,
    "otion": 55254,
    "(@": 117418,
    ".test": 127120,
    "ĊĊĊĊĊĊĊĊ": 74190,
    "];čĊ": 63716,
    "Ġdirectly": 43429,
    "Ġ\"%": 96212,
    "ris": 88644,
    "elta": 116413,
    "AIL": 145096,
    "){čĊ": 46602,
    "mine": 96931,
    "ĠĠĠĠĠĠĠĠĠĠĠĠĠĠĠĠĠĠĠĠĠĠĠĠĠĠ": 38218,
    "(k": 126319,
    "bon": 24701,
    "asic": 147332,
    "pite": 128206,
    "___": 46691,
    "Max": 38756,
    "Ġerrors": 49560,
    "ĠWhile": 70286,
    "Ġarguments": 130211,
    "Ġensure": 4447,
    "Right": 139665,
    "-based": 15706,
    "Web": 27845,
    "Ġ-=": 7452,
    "Ġintrodu": 99485,
    "ĠInst": 5533,
    "ĠWash": 106814,
    "ordin": 95700,
    "join": 80623,
    "Database": 25021,
    "Ġgrad": 3905,
    "Ġusually": 3703,
    "ITE": 105862,
    "Props": 8376,
    "?>Ċ": 104789,
    "ĠGo": 40980,
    "@Override": 70139,
    "REF": 126205,
    "Ġip": 143921,
    "ĠAustral": 4,
    "Ġist": 79155,
    "ViewById": 150353,
    "Ġserious": 126871,
    "Ġcustomer": 106843,
    ".prototype": 86223,
    "odo": 61986,
    "cor": 121254,
    "Ġdoor": 112456,
    "ĠWITHOUT": 100134,
    "Ġplant": 76408,
    "Ġbegan": 26965,
    "Ġdistance": 40530,
    "()).": 19042,
    "Ġchance": 30282,
    "Ġord": 23142,
    "came": 10186,
    "pragma": 30407,
    "Ġprotect": 118463,
    "ragment": 51411,
    "ĠNode": 48918,
    "ening": 27399,
    "Ñĩ": 47594,
    "Ġroute": 125676,
    "ĠSchool": 65355,
    "hi": 139516,
    "Ġneighb": 12373,
    "After": 87033,
    "licit": 121493,
    "Ġcontr": 124506,
    "Ġprimary": 8975,
    "AA": 129684,
    ".WriteLine": 11802,
    "utils": 146376,
    "Ġbi": 68811,
    "Red": 107955,
    ".Linq": 13060,
    ".object": 137551,
    "Ġleaders": 113731,
    "unities": 85093,
    "Ġgun": 96496,
    "onth": 68744,
    "ĠDev": 123245,
    "FILE": 68020,
    "Ġcomments": 113059,
    "_len": 2126,
    "arrow": 110971,
    "amount": 107878,
    "Range": 82716,
    "sert": 97032,
    "GridView": 46176,
    "Ġupdated": 20607,
    "ĠMo": 28509,
    "Ġinform": 61596,
    "ociety": 107695,
    "ala": 88710,
    "Access": 61955,
    "Ġhab": 72617,
    "Ġcreat": 5673,
    "_arg": 33348,
    "ĠJanuary": 145398,
    "ĠDay": 87441,
    "\")čĊ": 108244,
    "uple": 124888,
    "document": 49130,
    "gorith": 114341,
    "menu": 22888,
    "ĠOver": 46990,
    "bb": 16340,
    ".title": 9011,
    "_out": 59430,
    "Ġled": 55628,
    "uri": 93747,
    "Ġ?></": 97542,
    "gl": 54594,
    "Ġbank": 49942,
    "ayment": 48560,
    "ĉprintf": 25873,
    "MD": 46932,
    "Ġsample": 24641,
    "Ġhands": 100908,
    "ĠVersion": 78501,
    "uario": 116748,
    "Ġoffers": 79555,
    "ityEngine": 65214,
    "Ġshape": 94599,
    "Ġsleep": 44592,
    "_point": 62509,
    "Settings": 121081,
    "Ġachie": 87781,
    "Ġsold": 44379,
    "ota": 140100,
    ".bind": 79299,
    "Am": 108320,
    "Ġsafe": 4645,
    "Store": 123688,
    "Ġshared": 146527,
    "Ġpriv": 71619,
    "_VAL": 51777,
    "Ġsens": 83813,
    "){": 46437,
    "Ġremember": 103635,
    "shared": 82930,
    "element": 120295,
    "Ġshoot": 123514,
    "Vert": 84407,
    "cout": 115158,
    "Ġenv": 74738,
    "_label": 69303,
    "Ġ>Ċ": 9613,
    "run": 93831,
    "Ġscene": 112825,
    "(array": 95707,
    "device": 139027,
    "_title": 34750,
    "agon": 53907,
    "]čĊ": 69398,
    "aby": 53460,
    "Ġbecame": 114481,
    "boolean": 128788,
    "Ġpark": 64099,
    "ĠCode": 129680,
    "upload": 74266,
    "riday": 146712,
    "ĠSeptember": 150247,
    "Fe": 140714,
    "Ġsen": 21215,
    "cing": 115444,
    "FL": 101283,
    "Col": 65560,
    "uts": 60383,
    "_page": 74975,
    "inn": 75992,
    "Ġimplied": 94632,
    "aling": 119108,
    "Ġyourself": 47022,
    ".Count": 59017,
    "conf": 51563,
    "Ġaud": 64580,
    "_init": 11015,
    ".)": 126204,
    "Ġwrote": 86768,
    "NG": 23733,
    ".Error": 128980,
    "ä»": 112313,
    ".for": 49196,
    "Ġequal": 95161,
    "ĠRequest": 44913,
    "Ġserial": 34303,
    "Ġallows": 144898,
    "XX": 110257,
    "Ġmiddle": 7311,
    "chor": 20804,
    "Ã¸": 9156,
    "erval": 130478,
    ".Column": 51168,
    "reading": 101662,
    "Ġescort": 151389,
    "ĠAugust": 91144,
    "Ġquickly": 15171,
    "Ġweap": 102893,
    "ĠCG": 36830,
    "ropri": 75028,
    "ho": 51070,
    "Ġcop": 47466,
    "(struct": 41119,
    "ĠBig": 121053,
    "Ġvs": 88393,
    "Ġfrequ": 93337,
    ".Value": 75121,
    "Ġactions": 139279,
    "Ġproper": 149971,
    "Ġinn": 5175,
    "Ġobjects": 125323,
    "Ġmatrix": 7520,
    "avascript": 140078,
    "Ġones": 105968,
    ".group": 103021,
    "Ġgreen": 67349,
    "Ġpaint": 10711,
    "ools": 147859,
    "ycl": 70600,
    "encode": 75039,
    "olt": 149393,
    "comment": 130715,
    ".api": 122634,
    "Dir": 62395,
    "Ġune": 92754,
    "izont": 6715,
    ".position": 118128,
    "Ġdesigned": 91257,
    "_val": 31195,
    "avi": 90075,
    "iring": 60099,
    "tab": 84363,
    "Ġlayer": 94590,
    "Ġviews": 51041,
    "Ġreve": 74120,
    "rael": 99151,
    "ĠON": 115478,
    "rics": 36384,
    "np": 22883,
    "Ġcore": 95718,
    "());čĊ": 138116,
    "Main": 80877,
    "Ġexpert": 82652,
    "ĉĉčĊ": 26967,
    "_en": 123642,
    "Ġ/>": 109245,
    "utter": 27568,
    "IAL": 49083,
    "ails": 77916,
    "ĠKing": 47644,
    "*/ĊĊ": 4035,
    "ĠMet": 101155,
    "_end": 85471,
    "addr": 96885,
    "ora": 106261,
    "Ġir": 56171,
    "Min": 53521,
    "Ġsurpr": 132243,
    "Ġrepe": 117406,
    "Ġdirectory": 148054,
    "PUT": 97243,
    "-S": 18581,
    "Ġelection": 60248,
    "haps": 115200,
    ".pre": 11240,
    "cm": 41248,
    "Values": 141985,
    "Ġ\"Ċ": 25371,
    "column": 86316,
    "ivil": 123145,
    "Login": 72119,
    "inue": 98047,
    "Ġbeautiful": 48161,
    "Ġsecret": 122858,
    "(event": 64822,
    "Ġchat": 138574,
    "ums": 5501,
    "Ġorigin": 10225,
    "Ġeffects": 113471,
    "Ġmanagement": 51752,
    "illa": 49730,
    "tk": 83038,
    "Ġsetting": 12052,
    "ĠCour": 93384,
    "Ġmassage": 52068,
    "ĉend": 27428,
    "Ġhappy": 51438,
    "Ġfinish": 117868,
    "Ġcamera": 124023,
    "ĠVer": 92164,
    "ĠDemocr": 18378,
    "ĠHer": 54846,
    "(Q": 80803,
    "cons": 51814,
    "ita": 67371,
    "Ġ'.": 133644,
    "{}": 123099,
    "ĉC": 42041,
    "Ġstuff": 87641,
    "Ġ:Ċ": 120551,
    "ĠAR": 151406,
    "Task": 45656,
    "hidden": 20069,
    "eros": 62867,
    "IGN": 108449,
    "atio": 38312,
    "ĠHealth": 93966,
    "olute": 8106,
    "Enter": 71576,
    "'>": 29244,
    "ĠTwitter": 37062,
    "ĠCounty": 107059,
    "scribe": 143247,
    "Ġ=>Ċ": 53346,
    "Ġhy": 148744,
    "fit": 148239,
    "Ġmilitary": 127133,
    "Ġsale": 98135,
    "required": 71345,
    "non": 89361,
    "bootstrap": 62118,
    "hold": 133518,
    "rim": 54241,
    "-old": 3809,
    "ĠDown": 151114,
    "Ġmention": 136097,
    "contact": 71298,
    "_group": 82579,
    "oday": 133163,
    "Ġtown": 134402,
    "Ġsolution": 34571,
    "uate": 26732,
    "elling": 60772,
    "]->": 69297,
    "otes": 142437,
    "ental": 94437,
    "omen": 26955,
    "ospital": 54098,
    "ĠSup": 148291,
    "_EN": 138006,
    "Ġslow": 13239,
    "SESSION": 31019,
    "Ġblue": 21827,
    "ago": 53571,
    "Ġlives": 130950,
    "Ġ^": 147655,
    ".un": 128494,
    "inst": 39960,
    "enge": 145867,
    "Ġcustomers": 87596,
    "Ġcast": 39982,
    "udget": 118483,
    "ï¼ģ": 4344,
    "icens": 9845,
    "Ġdetermin": 31121,
    "Selected": 103421,
    "_pl": 80119,
    "ueue": 46505,
    "Ġdark": 146795,
    "//ĊĊ": 63690,
    "si": 151209,
    "thern": 132188,
    "ĠJapan": 142757,
    "/w": 58131,
    "PU": 76893,
    "ĠEast": 38927,
    "ovie": 119323,
    "Ġpackage": 19107,
    "Ġnor": 110690,
    "Ġapi": 80698,
    "bot": 99361,
    "\"];Ċ": 45167,
    "_post": 3374,
    "ulate": 25593,
    "Ġclub": 106252,
    "'));Ċ": 120125,
    "Ġloop": 9852,
    "PIO": 82438,
    "ione": 125000,
    "shot": 42967,
    "Initial": 143386,
    "Ġplayed": 148825,
    "register": 64612,
    "rought": 72479,
    "_max": 136325,
    "acement": 101839,
    "match": 30503,
    "raphics": 68518,
    "AST": 113315,
    "Ġexisting": 1066,
    "Ġcomplex": 43725,
    "DA": 133893,
    ".Ch": 52284,
    ".common": 138424,
    "mo": 60347,
    "Ġ'../../": 93737,
    "ito": 16826,
    "Ġanalysis": 52022,
    "Ġdeliver": 37904,
    "ĠĠĠĠĠĠĠĠĠĠĠĠĠĠĠĠĊ": 85839,
    "idx": 77101,
    "Ãł": 97161,
    "ongo": 112724,
    "ĠEnglish": 83575,
    "<!--": 149745,
    "Ġcomputer": 137107,
    "ENSE": 114051,
    "Ġpas": 10673,
    "Ġrais": 81055,
    "Hash": 130983,
    "Ġmobile": 143718,
    "Ġowner": 78057,
    "FIG": 67519,
    "ĠĠĠĠĠĠĠĠĠĠĠĠĠĠĠĠĠĠĠĠĠĠĠĠĠĠĠĠĠĠĠĠĠĠĠĠĠĠĠĠĠĠĠĠĠĠĠĠĠĠĠ": 34372,
    "thes": 144061,
    "Ġattr": 123822,
    "wd": 17481,
    ".time": 49400,
    "awn": 104038,
    "Ġtreatment": 112643,
    "ĠAc": 149111,
    ".View": 59917,
    "impl": 57520,
    "more": 58410,
    "pass": 15421,
    "Ġha": 23747,
    ".from": 89856,
    "Ġleading": 136710,
    "FFFF": 57529,
    "(error": 114397,
    ".ui": 34786,
    "atar": 72082,
    "aders": 89722,
    "dates": 2570,
    "Ġzu": 66880,
    "Ġflow": 64751,
    "Target": 53183,
    "Ġinvolved": 116956,
    "Ġio": 42737,
    "parse": 105032,
    "$_": 77040,
    "hest": 14829,
    ".int": 82928,
    "-item": 97195,
    "asy": 145827,
    "Sp": 70194,
    "Ġshift": 10942,
    "NT": 9212,
    "Ġtf": 22776,
    "_TR": 147044,
    ".web": 140476,
    "CS": 30482,
    "Ġ})": 23096,
    "Ġeyes": 99768,
    "_z": 638,
    "');čĊ": 10293,
    "iforn": 76536,
    "Ġ{@": 141780,
    "Ġnice": 116373,
    ".list": 97820,
    "ĠĠĠĠčĊ": 138898,
    "Ġfloor": 73877,
    "Ġredirect": 144861,
    "ĠUK": 116173,
    "(['": 117983,
    "Ġwish": 82528,
    "Ġcapt": 65483,
    "legal": 24400,
    "ĠIO": 33987,
    "Ġstage": 47301,
    ".String": 14063,
    "ĠAfr": 84641,
    "igen": 11938,
    "ĠSH": 77407,
    "Delete": 24471,
    "ells": 119901,
    "Ġsolid": 150110,
    "Ġmeeting": 73937,
    "Ġworked": 6620,
    "Ġeditor": 73035,
    "iny": 143004,
    "Ð¼": 113979,
    "_read": 115182,
    ".Id": 130844,
    "eff": 74172,
    "Offset": 66144,
    "cha": 123630,
    "USER": 7780,
    "ĉĉĠĠĠ": 94629,
    "ipped": 83418,
    "Ġdict": 50320,
    "ĠRun": 128826,
    ".hpp": 105737,
    "Ġang": 111320,
    "xml": 89664,
    "imple": 12199,
    "Ġmedical": 51838,
    "_token": 36071,
    "connect": 22424,
    "Ġhour": 3750,
    "Ġcontroller": 149549,
    "_message": 26497,
    "UID": 87208,
    "Gr": 107366,
    "anded": 44294,
    "_CH": 71538,
    "Ġbooks": 47531,
    "Ġspeak": 149237,
    "aming": 106950,
    "Ġmount": 118092,
    "Record": 48138,
    "ĉstruct": 122687,
    ".Web": 134611,
    "ondon": 97344,
    "Ġ//Ċ": 46326,
    "Ġfelt": 46459,
    ".Auto": 103789,
    "idge": 151507,
    "_pos": 61577,
    "PR": 68841,
    "Ġmodern": 94406,
    "Collection": 60678,
    "_msg": 28835,
    "CD": 6564,
    "ĠLo": 106659,
    "Ġseconds": 102185,
    "ibly": 140410,
    ".equals": 97696,
    "Ġinternational": 37142,
    "#pragma": 146913,
    "ooth": 120867,
    "Writer": 31261,
    "iate": 127216,
    "Ġcele": 121820,
    "ĠBit": 70066,
    "ivo": 99064,
    "ivery": 109664,
    "rd": 140641,
    "HECK": 37119,
    "Ġcache": 126361,
    ".count": 11348,
    "Ġroll": 102667,
    ".Read": 62600,
    "RED": 142597,
    "Ġsetup": 50876,
    "izontal": 67794,
    "models": 99230,
    "argv": 36035,
    "Ġconsidered": 90145,
    "=\"../": 91682,
    "settings": 37396,
    "ĠRel": 135086,
    "Ġgrowth": 83934,
    "Ġmix": 84671,
    "ĠWashington": 130649,
    "Ġplt": 37698,
    "ĠIM": 88676,
    "áº": 79000,
    "Ġturned": 135722,
    "ĠDateTime": 4238,
    "ĠWed": 105219,
    "(url": 40227,
    "Ġ\"-": 61799,
    "Ġletter": 46344,
    "Async": 127552,
    "ĠĠĠĠĠĠĠĠĠĠĠĠĠĠĠĠĠĠĠĠĠĠĠĠĠĠĠĠ": 94799,
    "ĠOctober": 144304,
    "_line": 15485,
    "Ġattention": 23146,
    "Ġcollect": 92813,
    "ĠHash": 139232,
    "Ġimag": 21284,
    "Tree": 51988,
    "Ġsituation": 126499,
    "ette": 72047,
    "_no": 86328,
    "IVE": 124002,
    "Ġvon": 117218,
    ".target": 91383,
    "Ġknowledge": 139044,
    "Ġdrive": 2059,
    ".post": 122860,
    "Ġblood": 19076,
    "Ġcit": 127584,
    "primary": 96265,
    "Ġconfiguration": 93064,
    "tee": 96596,
    "Ġphoto": 3633,
    "isode": 110577,
    "Trace": 1376,
    "Ġgave": 78673,
    "Ġshot": 137520,
    "ĠAir": 19959,
    "Ġmother": 124446,
    "price": 101434,
    "Ġmorning": 84608,
    ")){Ċ": 121931,
    "-x": 129427,
    "Ġtrade": 76640,
    "Ġdesc": 115253,
    "Ġ&&Ċ": 143580,
    "Ġparents": 107465,
    "Api": 133949,
    "åĪ": 87114,
    "ted": 35200,
    "wer": 134316,
    "Ġæ": 142858,
    "Ġsy": 73330,
    "ĠKe": 102687,
    "Parser": 46110,
    "åħ": 42829,
    "ancy": 18542,
    "Ġpiece": 145256,
    "ifornia": 93783,
    "toString": 124932,
    "ran": 1235,
    "iding": 97843,
    "PTION": 32811,
    "comes": 85190,
    "/lic": 91841,
    ".client": 110083,
    "El": 14595,
    "Long": 69600,
    "Ġprofessional": 37254,
    "rupt": 60613,
    "va": 105601,
    "Ġcompletely": 59389,
    "Ġpractice": 68834,
    "Ġselection": 53091,
    "Rem": 36950,
    "ini": 121080,
    "Ġcam": 99885,
    "REE": 150998,
    "Ġsites": 73973,
    "pa": 17606,
    "ATUS": 37981,
    "ÑģÑĤ": 7813,
    "arrant": 150939,
    "*(": 114124,
    "_KEY": 100740,
    "ĠButton": 134048,
    "ĠFriday": 79812,
    "sequ": 42811,
    "Ġreader": 86809,
    "Ġmessages": 48646,
    "è¯": 26297,
    "Ġbuf": 93147,
    "Ke": 55228,
    "Ġnov": 135021,
    "HP": 100714,
    "Msg": 103988,
    "align": 21557,
    "arily": 10966,
    "Ġ',": 58255,
    "_with": 34996,
    "Ġdas": 137200,
    "Ġheard": 107379,
    "atomic": 43230,
    "rial": 4712,
    ")[": 109329,
    "Ġdise": 141184,
    "@end": 61315,
    "Ġgold": 66979,
    "Ġfair": 9274,
    "Ġsales": 125767,
    ".Button": 76409,
    "strict": 150305,
    "save": 76642,
    "Ġmeasure": 89509,
    "Ġ\"+": 50449,
    "ecause": 146324,
    "ViewController": 40094,
    "ĠTable": 146711,
    ".param": 146664,
    "Ġdecided": 136518,
    "(((": 49971,
    "INFO": 90808,
    "Ġopportunity": 83976,
    "Te": 88657,
    "ICENSE": 149043,
    "ccording": 147075,
    "ki": 48670,
    "ĠUN": 90313,
    "Ġcontain": 87299,
    "Ġmanager": 113030,
    "Ġpain": 221,
    "ĠFire": 15683,
    "rome": 124593,
    "Ġplans": 46786,
    "Found": 103224,
    "lay": 34683,
    "ĠDecember": 25072,
    "Ġinflu": 95164,
    "Ãº": 75409,
    "rench": 100220,
    "ĠĠĠĠĠĠĠĠĠĠĠĠĠĠĠĠĠĠĠĠĠĠĠĠĠĠĠĠĠĠĠĠĠ": 77217,
    "azing": 107787,
    "brief": 81266,
    "call": 57573,
    "wood": 13847,
    "Ġloaded": 13525,
    "Ġgrand": 132169,
    "/f": 6986,
    "imp": 61911,
    "_U": 149107,
    "STR": 109206,
    "âĢ¢": 16946,
    "Ġcredit": 76466,
    ".Color": 90819,
    "orge": 112605,
    "QUEST": 4170,
    "Ġdifference": 48246,
    "ĠPC": 137533,
    "wargs": 1084,
    "Ġpub": 13153,
    "unday": 149732,
    "Ġfra": 128822,
    ".max": 124018,
    "Ġtried": 8238,
    "annels": 99791,
    "send": 28102,
    "Ġreports": 134539,
    "Ġadult": 91205,
    "äº": 6393,
    "Ġconsist": 138117,
    "ĠStreet": 88573,
    "ĠProgram": 134847,
    "SQL": 9595,
    "Matrix": 13405,
    "ouncil": 43816,
    "-A": 89528,
    "ĉw": 113905,
    "Ġwhose": 132019,
    "Ġrelig": 35000,
    "ĠSex": 73512,
    "Ġgives": 16835,
    "none": 37415,
    ".message": 54429,
    "(G": 4784,
    ".awt": 132914,
    "-right": 100438,
    "ĠNovember": 128853,
    "ellig": 45873,
    "utive": 46723,
    "Äĥ": 137257,
    "overn": 38053,
    "Ġeasily": 51447,
    "Ġideas": 44557,
    "ĠÐ½": 78513,
    "/css": 65657,
    "lying": 97439,
    "elle": 40411,
    "Can": 137201,
    "_color": 126444,
    "Ð¾Ð²": 143431,
    "Ġpair": 58865,
    "ngth": 67799,
    "Ġsplit": 46648,
    "drop": 128876,
    "arty": 100331,
    "ona": 109736,
    "Ġcapital": 5613,
    "Ġhear": 76186,
    "Ġexists": 50397,
    "ĉlog": 21631,
    "emo": 73480,
    "Run": 118636,
    "oi": 104027,
    "Ġparser": 122759,
    "ĠMethod": 144882,
    "Ġeducation": 82939,
    "[k": 140752,
    "Ġlibrary": 9982,
    ">\";Ċ": 150441,
    "_UN": 58669,
    "ĉstd": 1154,
    "oded": 104655,
    "Ġcalls": 51692,
    "here": 6719,
    "Rel": 32090,
    "Ġbrand": 46128,
    "background": 97505,
    "ga": 54790,
    "_address": 59337,
    "_params": 54318,
    "Category": 52311,
    "ĠIndia": 66739,
    "_event": 111145,
    "Ġing": 21360,
    "Render": 39808,
    ".cl": 105728,
    "umpy": 132011,
    "Ġpet": 69542,
    "FC": 115269,
    "ĠAnt": 85916,
    "Ext": 7239,
    "Ġcharge": 98026,
    "ened": 52625,
    "grad": 82571,
    "EO": 135915,
    "Ġdepend": 107026,
    "Ġ.ĊĊ": 139420,
    "frame": 31868,
    "Ġdf": 60193,
    "Ġhuge": 2660,
    "ĠPART": 103713,
    "eds": 32390,
    ";;": 80427,
    "ĠAM": 26516,
    "Ġbasic": 83389,
    "ĠLet": 33510,
    "lich": 73674,
    "Ġarm": 105743,
    "Ġstar": 39546,
    "Ġfederal": 71715,
    "Work": 98070,
    "Ġcarry": 55847,
    "ĠIsrael": 116101,
    "(obj": 26832,
    "={{": 139402,
    "Ġsaved": 16149,
    "Ġsyn": 32119,
    "Ġconstant": 97385,
    "VENT": 83129,
    "Ġpositive": 67284,
    "Ġconduct": 150446,
    "Ġskin": 5306,
    "Ġearlier": 58266,
    "Ġlayout": 56198,
    "ĠIP": 90452,
    "OUR": 143072,
    "Ġtim": 14815,
    "stylesheet": 8013,
    "_cl": 109973,
    "ĠCard": 74318,
    "++){Ċ": 55797,
    "Ġtemper": 95382,
    "ĠDavid": 132807,
    "ĉtry": 108887,
    ".dart": 33730,
    "Ġwants": 33752,
    "Ġpicture": 149888,
    "Ġvideos": 68330,
    "ĠComm": 56554,
    "isions": 121047,
    "_MAX": 133259,
    "Mapping": 15045,
    "-content": 83167,
    "ĠEar": 128106,
    "-de": 63710,
    "Ġprem": 41247,
    "bruary": 80801,
    "Ġcomponents": 127304,
    "Ġthroughout": 32564,
    "Ġpull": 31249,
    "Ġpages": 92069,
    "ente": 99025,
    "respond": 144633,
    "Ġgas": 51486,
    "criptor": 31996,
    "Ġedge": 28070,
    "Ġbound": 132812,
    "ACT": 141606,
    "******": 45459,
    "Ġcreating": 138905,
    "ĠCH": 149725,
    "Ġnullptr": 59965,
    "Br": 50086,
    "+'": 97365,
    ".co": 128253,
    ">::": 58117,
    "Ġlearning": 102529,
    ".Length": 37297,
    "_SH": 115710,
    "Ġpatients": 67652,
    "AIN": 123310,
    "Ġkids": 131732,
    "Ġcomfort": 90108,
    "Ġshown": 35685,
    "ugins": 39921,
    "ĠBack": 6485,
    "ella": 16253,
    "_CL": 147291,
    "Ġlat": 40131,
    "Ġdispatch": 96636,
    "Ġclasses": 135713,
    ".at": 10155,
    ".begin": 19584,
    "Ġsuccessful": 57190,
    "ban": 34890,
    "Ġobtain": 79286,
    "ĠSl": 82543,
    "Ġlack": 98758,
    "iterator": 19903,
    "Thread": 81279,
    "(size": 20676,
    "Ġnone": 59327,
    ".has": 32681,
    "_X": 64124,
    "sort": 40321,
    "nap": 149245,
    "pet": 46818,
    "bin": 53451,
    "ĠCanada": 69693,
    "They": 1746,
    "Ġdans": 20510,
    "ĠMat": 118436,
    "<td": 29081,
    "Ġhair": 64723,
    "Ġ'',Ċ": 98795,
    "Ġcu": 20285,
    "Ġlaws": 129662,
    "leted": 110903,
    "ped": 73118,
    "Ġpow": 114931,
    "Ġknew": 133201,
    "_COM": 51247,
    "_,": 92262,
    "ĠMag": 98689,
    "idents": 123051,
    "(req": 68904,
    "Ġ),": 100786,
    "-center": 36489,
    "Ġwide": 46261,
    "ĠAuthor": 87741,
    "stants": 33613,
    "Ġjobs": 109028,
    "Ġmath": 116395,
    "etimes": 94789,
    "Boolean": 24520,
    "Ġscope": 46413,
    "_is": 135323,
    "Ġmeas": 88235,
    "Ġkeys": 40881,
    "elay": 114971,
    "Ġexactly": 34348,
    "'=>'": 43595,
    "ĠPaul": 20375,
    "mas": 6096,
    "ĉprint": 12773,
    "(len": 104717,
    "fd": 32871,
    "Ġ);": 40125,
    ".Event": 108400,
    "qli": 10037,
    "irit": 107406,
    "ields": 125334,
    "oman": 14450,
    "ĠTop": 36605,
    "Ġvote": 65257,
    "Ġmask": 130207,
    "Ġtheme": 117200,
    "-Ċ": 30502,
    "Ġprops": 50316,
    "Ġfine": 28067,
    "Ġwriter": 123069,
    "_offset": 18979,
    "car": 116053,
    "Ġaltern": 67748,
    "Ġcopyright": 150091,
    "Ġdestroy": 67141,
    "pper": 136934,
    "Ġgenerate": 100527,
    "pped": 116682,
    "âĢĻd": 92268,
    "ĠĠĠĠĠĠĊ": 53379,
    "make": 133047,
    "ĠShow": 92302,
    "Ġbrowser": 13000,
    "Ġfavorite": 19683,
    "Ġcareer": 42789,
    "Ġhappened": 70812,
    "(char": 111568,
    "Ġrecommend": 131757,
    "Ġliter": 87293,
    ".filter": 50460,
    "grade": 86784,
    "ĠÂ£": 45490,
    "Phone": 132190,
    "oms": 111715,
    "Ġnamed": 96723,
    "-label": 81984,
    "ipo": 145535,
    "ĠOther": 11248,
    "Ġpanel": 36415,
    "Ġrock": 90715,
    "Scale": 51913,
    "ĉassert": 24091,
    "Ð´": 38618,
    "Ġtrust": 92655,
    "front": 124978,
    "Ġdemon": 79824,
    "Ar": 62868,
    "Net": 107981,
    "Ġeconomic": 72471,
    "footer": 86508,
    "Ġrace": 134312,
    "(node": 115811,
    "ĠOption": 151628,
    "split": 32263,
    "Ġphysical": 149536,
    "ifest": 133904,
    "Ġremoved": 137416,
    ".http": 73193,
    ")),Ċ": 70229,
    "Ġlooked": 141163,
    "';": 94688,
    "ding": 121608,
    "gest": 49743,
    "aturday": 27314,
    "/licenses": 138099,
    "Price": 3099,
    "Ġdro": 100174,
    "Ġtowards": 21335,
    "Ġuns": 98418,
    "ĠCL": 58705,
    "ĉstatic": 55300,
    "Ġrows": 72228,
    "Ġdefine": 56406,
    ".replace": 115134,
    "Ġfather": 69340,
    "ĠDesign": 9846,
    "assign": 135196,
    "mut": 40087,
    "Device": 58408,
    "Did": 127484,
    "'))Ċ": 76055,
    "ometry": 134340,
    "ayload": 46040,
    "Ġhistor": 25400,
    "ĠParam": 678,
    "ĠBoolean": 10353,
    "Ġnature": 73838,
    "Ġjs": 140998,
    "Ġnation": 23470,
    "ih": 102996,
    "Ġdiscover": 143593,
    "sem": 104661,
    "Handle": 147048,
    "ĉr": 41836,
    "ĠTechn": 53779,
    "Ġwall": 65942,
    "{$": 6463,
    "@property": 151353,
    "Ġ\"../": 125834,
    "Ġexam": 54058,
    ".draw": 34460,
    "opping": 142747,
    "Ġnearly": 72153,
    "Ġcool": 111446,
    "Ġindepend": 56440,
    "RES": 35555,
    "Ġhandler": 81329,
    "ĠMonday": 27724,
    "Ġsun": 52339,
    "Styles": 123448,
    "ously": 111108,
    "Ġĉ": 53210,
    "vest": 62076,
    "Display": 91711,
    "(y": 10506,
    "atically": 59901,
    "Ġpredict": 24135,
    "ying": 150694,
    "Ġsometimes": 689,
    "\"]Ċ": 80812,
    "Ġdrink": 51363,
    "Ġbul": 98309,
    "ifications": 141864,
    ".insert": 84310,
    ".reg": 71765,
    "Ġtests": 61808,
    "Alignment": 56098,
    "Ġalleg": 150696,
    "Ġattribute": 80709,
    "ĠNote": 19957,
    "Ġmyself": 140651,
    "arts": 127494,
    "Now": 88955,
    "Ġinteresting": 127624,
    "lients": 105871,
    "Ġpopulation": 38875,
    "ĠCalifornia": 41708,
    "\"I": 56329,
    "å¹": 145187,
    "Ġgreater": 36413,
    "uesday": 28247,
    "Ġthous": 64409,
    "Ġcosts": 47228,
    "Ġlaunch": 132841,
    "\\Http": 130618,
    "ker": 45090,
    "band": 16879,
    "ĠPlay": 107996,
    "Ġband": 140881,
    ".shape": 47684,
    "esome": 62648,
    "article": 26126,
    ".rf": 126618,
    "Ġwer": 112367,
    "Ã¡s": 86643,
    "embers": 69205,
    "usr": 102072,
    "BA": 120906,
    "ican": 16057,
    "ett": 49307,
    "validate": 23970,
    "ulti": 28751,
    "Ġimmediately": 123716,
    "zer": 101916,
    "Ġfigure": 27348,
    "oes": 28035,
    "eller": 82635,
    "ircle": 42070,
    "ĠSign": 97458,
    ".db": 118055,
    "Ġrank": 28242,
    "Bytes": 15084,
    "Ġprojects": 74231,
    "_rec": 61893,
    "ULAR": 13356,
    "API": 23602,
    "ĠLine": 49449,
    "Port": 4246,
    "Ġpoll": 131616,
    "Ġgiving": 55180,
    "idence": 51314,
    "--Ċ": 1631,
    "Ġplot": 39906,
    "icial": 77442,
    "Ġwarrant": 85849,
    "ITION": 118278,
    "ĠDouble": 135200,
    "Ġbillion": 41389,
    "gorithm": 57755,
    "Ġequipment": 53461,
    "DATE": 40912,
    "Ġ@\"": 25558,
    "EE": 114228,
    "Ġple": 43052,
    "iation": 8703,
    "Ġheaders": 60082,
    "Ġproced": 72964,
    ".ComponentModel": 22568,
    "ĠObama": 4675,
    "Ġpa": 68907,
    "ĠBest": 121818,
    "imately": 103307,
    ".getString": 137037,
    ".\\": 2698,
    "mploy": 150756,
    "Ġraw": 83667,
    "_block": 74616,
    "undred": 139791,
    "\"},Ċ": 79927,
    ".GroupLayout": 132254,
    "Ġbrought": 81618,
    "NSString": 97077,
    "throw": 18200,
    "created": 65337,
    ".New": 59679,
    "_view": 125435,
    "CP": 66139,
    "eps": 51732,
    "Op": 118692,
    "Ġgratis": 108403,
    "Ġ'\"": 63076,
    "Ġinterview": 78856,
    "\"\"\"Ċ": 106320,
    "Ġpartial": 29063,
    "Ġaria": 134884,
    "bing": 124793,
    "Author": 51356,
    "Book": 82303,
    "ĠPat": 126597,
    "uman": 22571,
    "Users": 47989,
    "plus": 76634,
    "ĠDirect": 19993,
    "venue": 46731,
    "alpha": 8755,
    "UCCESS": 72185,
    "ĠCall": 106060,
    "Ġ);čĊ": 42963,
    "imated": 188,
    "Ġremain": 33631,
    "Ġanti": 47296,
    "ĠLondon": 12992,
    "Ġsafety": 105090,
    "POSE": 32822,
    "oles": 112450,
    "controller": 78740,
    "Byte": 24936,
    "ĠCourt": 58768,
    "ĠPhil": 135955,
    "ĠAssoci": 123400,
    "ena": 12533,
    "åĲ": 25775,
    "_STR": 67234,
    "coin": 69712,
    "reshold": 57999,
    "Ġbatch": 124273,
    "_Click": 75588,
    "entication": 6182,
    ">';Ċ": 146206,
    "enty": 144260,
    "Ġbeginning": 86698,
    "Ġzero": 94667,
    "ĠConvert": 71120,
    "Ġterr": 114874,
    "Ġpaid": 118644,
    "Ġincreased": 1641,
    "catch": 27360,
    "-size": 1350,
    "activity": 86484,
    "equals": 36932,
    "Ġqueue": 61349,
    "Ġ\"'": 135458,
    "ĠInternational": 75797,
    "ĠfÃ¼r": 95883,
    "ursday": 102134,
    "Ġscient": 70320,
    "allow": 33382,
    "axis": 74686,
    "Ġappropri": 117455,
    "edge": 4337,
    "Ġidx": 31961,
    "Success": 64924,
    "entifier": 66468,
    ":\\": 72740,
    "xis": 45676,
    "Ġmaximum": 139130,
    "arks": 56487,
    "Ġbirth": 140106,
    "(index": 19232,
    "Ġmaybe": 126809,
    ".py": 73446,
    "files": 140897,
    "Ġlimited": 93167,
    "_check": 100125,
    "look": 143361,
    "plies": 144145,
    "Ġmovement": 114192,
    "'].": 148074,
    "Ġbroad": 112753,
    "ĠBE": 57601,
    "ĠUnityEngine": 92883,
    ".cpp": 58967,
    "ĠEvery": 92937,
    "Admin": 77538,
    "Ġfans": 128073,
    "pared": 117485,
    "ĊĠĠĠĠĊ": 96207,
    "Ġforeign": 85886,
    "Ġpan": 56041,
    "Ġtour": 55810,
    "ĠOrder": 43642,
    "Ġmoving": 2355,
    "Ġauf": 98754,
    "Call": 59130,
    "cb": 37749,
    "ÅŁ": 84333,
    "ventory": 15473,
    "ĠSql": 40492,
    "Ġfully": 42147,
    "ClickListener": 33252,
    "WORD": 35167,
    "Ġannounced": 36348,
    ")čĊčĊ": 39909,
    "Ġagreed": 145577,
    "rie": 129451,
    "Ġearn": 131227,
    "_link": 113176,
    ".array": 89009,
    "(text": 53384,
    "Ġmaterials": 140550,
    ",p": 87694,
    "ffff": 18368,
    "vg": 125471,
    "ĠÂ©": 48583,
    "Ġunless": 48101,
    "ajax": 20558,
    "LOG": 45463,
    "Ġsexual": 114182,
    "Ġ\\\"": 119068,
    "-time": 109112,
    "Ġcoach": 105574,
    "Ġsupported": 97948,
    "Ġphotos": 64792,
    "iform": 20992,
    ".Create": 9210,
    ")]": 63300,
    "rier": 85465,
    "Ġdialog": 130823,
    "aver": 72066,
    "ige": 125727,
    ")+": 82856,
    "_idx": 105089,
    ":[": 111790,
    "_min": 113090,
    "ĠCong": 112205,
    "Ġpressure": 71297,
    "Ġteams": 25675,
    "Sign": 79985,
    "begin": 73002,
    "rian": 129587,
    "NESS": 22872,
    "LS": 48267,
    "Ġimprove": 50814,
    "ĠSunday": 98078,
    "Ġdefinition": 42329,
    "iger": 57382,
    "rollers": 56486,
    "Ġthinking": 131874,
    "Template": 49247,
    "-F": 127004,
    "Ġemerg": 42337,
    "plates": 85516,
    "ĠUSA": 45387,
    ".setState": 8085,
    "ĠAlso": 151013,
    "rev": 109875,
    "Ġenable": 144574,
    "ĠCO": 27225,
    "PECT": 104369,
    "Ġconcept": 66607,
    ")-": 12886,
    "ĠâĢ¢": 133367,
    "Ġsets": 1547,
    "Ġmeaning": 42011,
    "emon": 19341,
    "ĠCons": 32983,
    "cmp": 77962,
    "eder": 69188,
    "anned": 128372,
    "icensed": 111905,
    "ĠSuper": 5592,
    "Ġdaily": 98003,
    "Ġmulti": 81890,
    "_u": 150652,
    "Ġchalleng": 134877,
    "_mode": 126541,
    "ĠPromise": 54574,
    "Ġstrict": 53583,
    "jo": 43922,
    "inton": 113183,
    "(list": 84111,
    "Only": 9208,
    ">{": 78975,
    "Ġvehicle": 2662,
    "íķ": 4912,
    "ĠPlayer": 79352,
    "ĠDel": 12234,
    "Ġpool": 600,
    ".url": 99658,
    "nesday": 75584,
    "();čĊčĊ": 124089,
    "Ġ\");Ċ": 25087,
    "Local": 22321,
    ".\");Ċ": 90285,
    "Ġorganization": 128915,
    "render": 129173,
    "ĠApplication": 65453,
    "Ġsummer": 64348,
    "expected": 23051,
    "NA": 138130,
    "Ġrap": 33858,
    "_obj": 104697,
    "Ġsurface": 126026,
    "ĠPUR": 45757,
    "Ġ},ĊĊ": 25868,
    "Ġvariables": 24543,
    "(message": 19892,
    "Ġopin": 124571,
    ".back": 94222,
    "Ð°Ð½": 126717,
    "Ġworkers": 98384,
    "vm": 106687,
    "Co": 45189,
    "ughter": 56989,
    "Ġmaster": 2942,
    "Ġ\"\",": 64144,
    "Ġstories": 79021,
    ".User": 29862,
    "Ġcelebr": 116051,
    "inese": 145567,
    "BS": 77911,
    "ĠCommand": 59192,
    "ashboard": 29636,
    "Ġog": 14414,
    "kg": 85896,
    ".image": 64177,
    ".style": 135320,
    "Ġsteps": 44132,
    "ĠBen": 119177,
    "(args": 118658,
    "ĠPerson": 27725,
    ",y": 121494,
    "Ġofficials": 108844,
    "|Ċ": 16556,
    "Ġskills": 112182,
    "vc": 101931,
    "Ġbuilder": 24643,
    "Ġgar": 89569,
    "Account": 15094,
    "ĠAuth": 144058,
    "çĶ": 143305,
    "'])Ċ": 142205,
    "ĠAT": 21014,
    "nn": 133228,
    ".Int": 88690,
    "SSERT": 143096,
    "Ġeffective": 62838,
    "LETE": 70913,
    "Ġtools": 149226,
    "ARD": 80884,
    "Ġdigital": 55963,
    "Double": 42766,
    "ĠFind": 5060,
    "RC": 20910,
    "Ġinline": 117794,
    "/r": 94017,
    "ARAM": 62770,
    "ASK": 139019,
    "Ġintent": 105030,
    "aight": 60993,
    "_addr": 36536,
    "Ġrequests": 124399,
    ".first": 118250,
    "Ġdebug": 98423,
    "Ġspent": 40225,
    "()));Ċ": 2308,
    "ÅĽ": 19313,
    "Ġprincip": 107280,
    "Logger": 144562,
    "cludes": 118890,
    ".use": 133541,
    "Ġsurv": 61901,
    "media": 59109,
    "ĠFebruary": 53036,
    "ĠMac": 76810,
    "Ġmissing": 107116,
    "Ġwife": 18688,
    "Ġtalking": 51587,
    "ĠMake": 107557,
    "Ġcart": 7065,
    "Ġlocated": 98255,
    "Enc": 147890,
    "-a": 64679,
    "chron": 108760,
    "Ġcards": 66936,
    "Ġguy": 85301,
    "Ġpers": 150571,
    "ĠYes": 76448,
    "atever": 15042,
    "ĠAng": 109200,
    "olar": 26905,
    "ĠEven": 5290,
    "Ġaccur": 101432,
    "ĠPower": 94312,
    "ĠGold": 57100,
    "clear": 21498,
    "Process": 25111,
    "Ġrecords": 95802,
    "Ġkilled": 22741,
    ".clear": 4603,
    "ĠWARRANTIES": 7019,
    "Ġpurpose": 53064,
    "panel": 113250,
    "JECT": 71782,
    "ÃŃa": 23660,
    "Ġexerc": 2429,
    "WS": 131488,
    "/L": 133963,
    ".exports": 122598,
    "Ġ___": 125509,
    "Ġsin": 135073,
    "Servlet": 19222,
    "ĠdÃ©": 67470,
    ".delete": 22444,
    "roke": 91991,
    "Sl": 69536,
    "ugh": 148135,
    "ears": 23807,
    "Ġpointer": 25372,
    "Ġhop": 93662,
    "allery": 145317,
    "Ġobs": 86469,
    "covery": 34900,
    "ĉchar": 105939,
    "ĉĉĉĉĉĉĉĉĉĉ": 74354,
    "ĉdef": 18726,
    "ocity": 148152,
    "itchen": 117371,
    "ulations": 52732,
    "ĠFIT": 141465,
    "Ġ).": 136523,
    "straints": 112649,
    "vention": 106800,
    "Ġrequires": 87463,
    "ĠOper": 47757,
    "ME": 114664,
    "OUNT": 24537,
    "allet": 2161,
    "Ġnorm": 42865,
    "IRE": 21468,
    "exas": 103806,
    "Ġprograms": 63735,
    "Ġweak": 121970,
    "'.$": 63632,
    "uing": 12349,
    "ĉĠĠĠĠĠĠĠ": 67038,
    "Ġmil": 69999,
    "Ġfirm": 150028,
    "initely": 47959,
    "_VALUE": 111851,
    "apse": 138864,
    "atisf": 43165,
    "Ġdemand": 109772,
    "_mod": 149721,
    "Ġdescribed": 119174,
    "Ġplaces": 109535,
    "VID": 106869,
    "Ġalone": 98763,
    "Ġexport": 48827,
    "Ġvec": 59340,
    "ĠMax": 10002,
    "Ġactivities": 93546,
    "ictures": 56358,
    "gener": 137822,
    "Ġma": 136267,
    "Ĥ¬": 5564,
    "Ġexpression": 79356,
    "Callback": 82643,
    "_content": 44437,
    "ĠMost": 73803,
    "Ġtesting": 49997,
    "EC": 31984,
    "CHANT": 97274,
    "Ġadjust": 109095,
    ".Threading": 51985,
    "(ctx": 9532,
    "Ġagree": 24998,
    "ighest": 10721,
    "Ġui": 103146,
    "ĠLaw": 33480,
    ".Y": 33934,
    "><?": 29523,
    "Ġpod": 147177,
    "-lg": 148114,
    "âĢĿĊĊ": 71870,
    "Ġdescribe": 61440,
    "ĠEuropean": 84788,
    "-sh": 116588,
    "ĠPURPOSE": 100163,
    "ORY": 8333,
    "Ġconvers": 65669,
    "ĠIlluminate": 89041,
    "ĠAv": 25659,
    "(ch": 23212,
    "?\"": 52518,
    "chen": 65659,
    "ima": 120196,
    "Document": 83368,
    "Ġoperations": 116490,
    "win": 67913,
    "ĉfunction": 151603,
    ".Image": 122835,
    "Ġscen": 81473,
    "/h": 138123,
    "ĠSC": 146656,
    "Ġexplo": 113834,
    ":%": 35802,
    "/**čĊ": 20699,
    "NAME": 78128,
    "æĪ": 69848,
    "(var": 1711,
    "Ġdirector": 52208,
    "ONG": 123714,
    "Ġyield": 34640,
    "Ġfeet": 47157,
    "ĠSearch": 121560,
    "ĠIl": 108407,
    "Ġrestaur": 36849,
    "duc": 122580,
    "Ġinteger": 49090,
    "Ġ'';Ċ": 57339,
    "Ġhighly": 140439,
    "checked": 112115,
    "ĠPARTIC": 145728,
    "ERCHANT": 114343,
    "ï¼ī": 48870,
    "Ġoptim": 13937,
    "Queue": 52425,
    "ĠLI": 45201,
    "itation": 110635,
    "Ġtransport": 17003,
    "ission": 37719,
    "fill": 110765,
    "usion": 139045,
    "ĠĠĠĠĠĠĠĠĠĠĠĠĠĠĠĠĠĠĠĠĠĠĠĠĠĠĠĠĠĠ": 32989,
    "ĉbool": 150856,
    "-th": 90022,
    "upt": 103346,
    "Ġessential": 128017,
    "anted": 144835,
    "Ġbenefits": 46501,
    "ĉS": 101205,
    "';čĊ": 99999,
    "iki": 39115,
    "Ġgirls": 145400,
    "iced": 139407,
    "buffer": 144723,
    "]+": 80591,
    "Ġsocket": 47713,
    "Ġprices": 34,
    "ĠFre": 133357,
    "Ġsat": 137669,
    "Ġwood": 148101,
    "MenuItem": 73105,
    "ARG": 18625,
    "ĠAdmin": 111966,
    "OWN": 25387,
    "dk": 120989,
    "Ġreset": 21955,
    "Ġforms": 18457,
    "ĠÐ¸": 46431,
    "æĸ": 84427,
    "ĠTuesday": 145263,
    "ĠInitialized": 49064,
    "_train": 45263,
    "orary": 49368,
    "ategor": 115071,
    "Ġdt": 142983,
    "Total": 150174,
    "construct": 38460,
    "ilies": 24265,
    "Ġguys": 11942,
    "ÐµÑĢ": 17340,
    "Ġinstruction": 77722,
    "yled": 24700,
    "Ġinternet": 134677,
    "etadata": 101082,
    "ady": 116663,
    "faces": 55544,
    "jection": 99366,
    "ĠJack": 32260,
    "Ġrect": 100914,
    "[-": 44699,
    "ĠLeg": 118010,
    "Ġdevices": 125307,
    "OC": 34948,
    "Ġ*čĊ": 40390,
    "oration": 142627,
    "ertain": 4038,
    "Ġguard": 117905,
    "ostream": 36626,
    "Ġenum": 23801,
    ".layout": 46342,
    "Ġ\";Ċ": 132745,
    "voke": 33251,
    "ĠOk": 145296,
    "Home": 111200,
    "(tr": 82166,
    "ETH": 6046,
    "Ġdelay": 78862,
    "Ġpurchase": 131223,
    "dc": 122525,
    "Ġaren": 118267,
    "_once": 151138,
    "ĉĉĉĉĊ": 20849,
    "ror": 73647,
    "draw": 93273,
    ".run": 128958,
    "(model": 59264,
    "Timeout": 264,
    "lik": 15,
    "ĠArg": 109093,
    ".en": 43202,
    "Ġfish": 24164,
    "cpy": 15418,
    "_fe": 127935,
    "ERCHANTABILITY": 98288,
    "(X": 145434,
    "_output": 126298,
    "??": 37945,
    "Ġjo": 102244,
    "andard": 128565,
    "Ġdoll": 58513,
    "errors": 3166,
    "_base": 106304,
    "ĠPARTICULAR": 6775,
    "Ġleader": 146221,
    "Ġcompar": 125855,
    "Ġdoub": 39569,
    "ĠVis": 14576,
    "StackTrace": 2670,
    "-C": 47825,
    "ĠStud": 144647,
    "stitute": 123417,
    "More": 17714,
    "ĠDescription": 118726,
    "WARE": 12833,
    "ads": 20478,
    "ĠÐº": 66920,
    "bind": 89463,
    "=self": 142648,
    "employ": 2506,
    "[n": 135737,
    ".all": 75852,
    "-B": 148358,
    "&&": 146971,
    "alm": 151434,
    "Ġculture": 100328,
    "house": 96698,
    "Ġsuffer": 7500,
    "Ġ'%": 127508,
    "Ġstraight": 26603,
    "ĠStar": 120842,
    "udo": 97225,
    "Ġded": 141226,
    "ĠCOM": 82497,
    "Ġconfirm": 80996,
    "ĠGood": 78194,
    ".sc": 19432,
    "________________": 28336,
    "DR": 116725,
    "Configuration": 134624,
    "DateTime": 51951,
    "Ġadvert": 38603,
    "Ġcouldn": 33290,
    "async": 97047,
    "stack": 107441,
    "')čĊ": 147036,
    "Kit": 132471,
    "Ġhous": 85599,
    "Ġmechan": 9771,
    "rate": 50292,
    "Ġaudio": 145956,
    "ĉcout": 2960,
    "cores": 112954,
    "Ġspot": 101973,
    "Ġincreasing": 44921,
    "Ġ##": 59493,
    ")))": 98083,
    "points": 48169,
    "Ġcompared": 119085,
    "lig": 150212,
    "Ġbehavior": 45049,
    "ĠBY": 95074,
    "ĠAtt": 73176,
    "craft": 60000,
    "headers": 118321,
    "ete": 79160,
    "endregion": 21443,
    "Ġdetail": 112041,
    "ULE": 127836,
    "ĠCommon": 78410,
    "ĉprotected": 62167,
    "ston": 135605,
    "ĠFITNESS": 51772,
    "Ġfresh": 112378,
    "\">ĊĊ": 145705,
    ".example": 35946,
    "berg": 116250,
    "Ġmoved": 2696,
    "ĉe": 64727,
    "ĠSaturday": 148093,
    "Ġpayload": 75641,
    "Äĩ": 146521,
    "):ĊĊ": 60696,
    "Ġbey": 8910,
    "urer": 106943,
    "<script": 14772,
    "Ġsymbol": 6528,
    "Ġassum": 89838,
    "Ġpul": 95238,
    "Effect": 124270,
    "Ġhundred": 4025,
    "Tool": 78771,
    "aked": 50585,
    "connection": 141357,
    "Ġvoice": 148570,
    "Ġpd": 25901,
    "Ġtransaction": 102571,
    "Ġlinks": 42331,
    "Err": 48944,
    "ĠIndian": 134889,
    "TC": 80669,
    "atalog": 86184,
    "ni": 100930,
    "sign": 117400,
    "<<\"": 150682,
    "ji": 60739,
    "ya": 62326,
    "Ġdemonstr": 54264,
    "ulated": 82329,
    ".St": 127659,
    "Ġinstit": 4759,
    "Ġboost": 64874,
    "Ġcells": 23190,
    "olic": 10395,
    ".Pro": 23561,
    ":</": 77027,
    "EventListener": 140175,
    "ifying": 84318,
    "ĠDi": 11979,
    "orrow": 143523,
    ".execute": 149825,
    "Ġcollege": 117096,
    "Your": 2387,
    "Ġlargest": 68565,
    ".dis": 97931,
    "Ġqui": 68039,
    "Ġindividuals": 10292,
    "_buffer": 147129,
    "Ġng": 32360,
    "SA": 64084,
    "ĠControl": 7413,
    "Ġsing": 88587,
    "Ġsuit": 107425,
    "ĠĠĠĠĉ": 96979,
    "SG": 43282,
    "Ġjump": 72999,
    "Ġsmart": 45292,
    "oma": 42480,
    "ĠExp": 24535,
    "Ġ'-": 51830,
    "Ġassist": 27018,
    "Ġsuccessfully": 509,
    "sys": 148398,
    "ĠCre": 67345,
    "_ref": 89271,
    "ĠThursday": 52947,
    "Ġbur": 114793,
    "ĠÐ´": 30790,
    "Ġbeyond": 119976,
    "Ġnodes": 38538,
    "Details": 93981,
    "inct": 43526,
    "ĠJames": 84193,
    "Ġaffect": 99807,
    "exception": 86983,
    "Ġtypeof": 28631,
    "(čĊ": 51029,
    "-se": 104874,
    "Ġfetch": 66716,
    "`,": 51687,
    "Ġcrusher": 40234,
    "}.": 54220,
    "ĠBO": 18843,
    "Show": 62533,
    "Ġrates": 60478,
    "Ġbon": 135183,
    "-icon": 32657,
    "ĠMedia": 35413,
    "RESS": 57882,
    "ĠValid": 21578,
    "Ð¾Ð»": 123111,
    "Ġfuck": 133191,
    "acks": 90994,
    "Ġstudies": 17131,
    "Me": 134208,
    "Ġowners": 133547,
    "}else": 37193,
    "Ġgrowing": 21382,
    "Variable": 136174,
    "ĠBel": 54735,
    ".random": 72619,
    "vement": 39573,
    "onym": 113936,
    "(F": 56474,
    "ĠFALSE": 116253,
    "Ġtorch": 37309,
    "(row": 10728,
    "igo": 28750,
    "structure": 1216,
    "Ġcertainly": 54832,
    "Dep": 65751,
    "ĠGreen": 26276,
    "question": 16535,
    "Ġadding": 20084,
    "ĠDevelop": 128665,
    "_def": 36645,
    "Ġmach": 141642,
    "=%": 134253,
    "ĉĉĠ": 25289,
    "conds": 117454,
    "Project": 103352,
    "Ġreject": 55477,
    "ĠÎ": 77448,
    "Ġpoor": 46321,
    "Ġaware": 49859,
    "ĠBuild": 862,
    "ĠBritish": 150927,
    "ĠNE": 89460,
    "Ġnumer": 116612,
    "rees": 8515,
    "claim": 132218,
    "Ġmock": 143969,
    "Ġom": 7483,
    "Ġscre": 102355,
    "OLD": 110794,
    ".pl": 29968,
    "eler": 49244,
    "Ġcorrespond": 57426,
    "_HE": 137917,
    "Ġbinary": 140167,
    "_order": 66987,
    "ĠSQL": 118819,
    "Ġadvant": 105337,
    "Ġprev": 43132,
    ".[": 11789,
    ".assertEqual": 64090,
    "plier": 1191,
    "arp": 21190,
    "Ġclosed": 34499,
    "Ġencour": 103526,
    "ĠQString": 75656,
    "aud": 56229,
    "Ġdeveloped": 89879,
    "Ġpermission": 97877,
    ".debug": 25657,
    "operator": 83700,
    "Ġ'Ċ": 114620,
    "Ġsym": 23636,
    "atively": 116421,
    "Ã©e": 18945,
    "-color": 3830,
    "ĠGET": 1468,
    "ky": 8172,
    "Ġalthough": 6295,
    "_request": 82265,
    "_element": 37219,
    "................": 37504,
    "_DATA": 24309,
    "Ġamazing": 45118,
    "Ġsb": 96909,
    "ĠDefault": 12376,
    "Events": 134582,
    "Ġfailure": 63359,
    "acle": 129969,
    "Properties": 81958,
    "Ġdream": 93598,
    "Ġdistr": 48936,
    "Ġau": 91019,
    "Ġgenerated": 130634,
    "æķ": 46013,
    "ĠTeam": 42655,
    "USE": 147797,
    "Ġincome": 88470,
    "Ġeye": 93164,
    "_not": 2849,
    "\"],": 25119,
    "_form": 47503,
    "Support": 21769,
    "orders": 60242,
    ".Print": 34801,
    "ville": 109275,
    "ĠWednesday": 8874,
    "olver": 132826,
    "Ġoppos": 117322,
    "isation": 124755,
    "ola": 85528,
    "Close": 74683,
    "<p": 31467,
    "_width": 127549,
    "Invalid": 19799,
    "xb": 50356,
    "Ġstrugg": 90074,
    "_action": 130962,
    "Ġtxt": 74545,
    "ĠPath": 131318,
    "alar": 92168,
    "ĠMERCHANTABILITY": 5982,
    "service": 78544,
    "ĠMichael": 42645,
    "ableView": 14241,
    "Debug": 145253,
    "okes": 59811,
    "She": 75695,
    "Ġguess": 124441,
    "ĠJava": 142433,
    "_PATH": 36484,
    "Ġparticularly": 138200,
    "ĠII": 98131,
    "Ġdomain": 112921,
    "å¹´": 75577,
    "Ġreduce": 31285,
    "-left": 121633,
    "real": 57872,
    "Ġappears": 124112,
    "Ġcomo": 63722,
    "ĠUnit": 57344,
    "ĠGovern": 135187,
    "ali": 83004,
    "allel": 20432,
    "ĠJew": 143586,
    "_I": 61839,
    "Ġcos": 7090,
    ".color": 68220,
    "ĠGlobal": 18824,
    "Ġtele": 42874,
    "ben": 114369,
    "_trans": 148585,
    "Ġreasons": 83991,
    "Ġemb": 57830,
    "ensity": 20646,
    "lines": 115315,
    "omin": 76263,
    "Screen": 130437,
    "Ð°ÑĤ": 43184,
    "pects": 35595,
    "clip": 53587,
    "foo": 25525,
    "rent": 100650,
    "Ġaf": 125377,
    "Ġdanger": 52978,
    "iling": 22422,
    "Names": 34800,
    "Our": 114344,
    "Ġdistribution": 148781,
    "While": 91724,
    "SL": 100816,
    "Write": 108824,
    "Ġgoto": 4844,
    "Ġcolors": 102425,
    "Ġpowerful": 9042,
    "kin": 105164,
    "Ġdepth": 119894,
    "ercial": 65651,
    "ĠCongress": 101471,
    "ĠMarket": 123123,
    "Db": 132641,
    "under": 73907,
    "ĠLast": 130641,
    "ÃŁ": 130029,
    "greg": 76602,
    "Ġposts": 101569,
    "_URL": 126632,
    "otos": 66576,
    "Don": 88231,
    "Ġmicro": 126443,
    "Ġarrest": 40076,
    "Ð¿": 29468,
    "Ġ(@": 114193,
    "ĠHot": 32112,
    "ĠIndex": 89098,
    ";&": 121602,
    "#!": 90907,
    "ĠNor": 131332,
    "ĠCap": 83150,
    "-(": 46463,
    "Ġinterested": 26800,
    "pear": 109720,
    "Ġrent": 127383,
    "Ġalbum": 6666,
    "olicy": 147886,
    ".lang": 316,
    ".trans": 126520,
    ".format": 144507,
    "Ġ{čĊčĊ": 944,
    "phere": 112224,
    "Ġaxis": 144906,
    "ĠBusiness": 143962,
    "ersistence": 27519,
    "urr": 27839,
    "Ġminimum": 54439,
    "endor": 72022,
    "ĠSD": 79388,
    "ĠInternet": 11486,
    "å¤": 44224,
    "Exp": 42136,
    "iverse": 109264,
    "MM": 31600,
    "Ġobvious": 124864,
    "Ġbasis": 36634,
    "Ġscience": 120892,
    "Ġbudget": 69725,
    "izations": 125905,
    "PA": 40976,
    "Ġflags": 86230,
    "pret": 114579,
    "LOCK": 62091,
    "Ġvariety": 127541,
    "Ġtruth": 63668,
    "dt": 98694,
    "Ġgone": 98181,
    "Ġbattle": 93916,
    "<std": 86536,
    "ĠSil": 39270,
    "rf": 29642,
    "uda": 36897,
    "Ġerot": 139839,
    "ĠCam": 37654,
    "Ġstation": 89711,
    "Ġ'</": 72004,
    "cheme": 140779,
    "ĠSun": 27482,
    "Ġfinished": 49784,
    "Ġshop": 112031,
    "ĠKore": 55496,
    "Ġeight": 24198,
    "_REG": 117887,
    "ND": 42994,
    ">,": 19479,
    "\"><?": 126326,
    "(num": 63630,
    "ĉinline": 72533,
    "Transaction": 75505,
    ".On": 37001,
    "Ġmail": 62890,
    "rey": 26296,
    "results": 36898,
    "Ġnav": 145459,
    "IMIT": 45243,
    "_ids": 72155,
    "Make": 13993,
    "åĬ": 97895,
    "Modal": 100223,
    "ĠLOG": 122153,
    "ĠSur": 103436,
    "Ġinstanceof": 80618,
    "Ġoverall": 128683,
    "ĠInformation": 139256,
    "Ġconstruction": 39436,
    "_FILE": 15380,
    "but": 80670,
    "Ġmedic": 104959,
    "Ġduration": 46617,
    "itness": 83966,
    "agent": 54175,
    "AV": 960,
    "Ġseven": 134420,
    "olf": 35196,
    "Ġ}}Ċ": 62101,
    "\"],Ċ": 98459,
    "Ġcalling": 107938,
    "Ġans": 144850,
    "throws": 91516,
    "orizontal": 2902,
    "ĠuseState": 24342,
    ".fl": 116707,
    "ĠStatus": 138498,
    "ĠOnline": 59927,
    "RR": 65562,
    "ĠRich": 85982,
    "ĠHill": 25427,
    "Ġbrain": 146355,
    "Ġfollowed": 49115,
    "emic": 41976,
    "Ġslight": 38289,
    "Ġinsurance": 17175,
    ".Array": 59177,
    "Ġabstract": 69685,
    "ĠSum": 15438,
    "redirect": 55708,
    "owner": 54514,
    "(msg": 23582,
    "ĠClinton": 116347,
    "Non": 89458,
    "ĉex": 149489,
    "Ġvolume": 93062,
    "ĠEventArgs": 82703,
    "-L": 102,
    "ĠDim": 49193,
    "ĠMart": 136916,
    "Ġcursor": 86202,
    "Ġimplementation": 137028,
    "urred": 132907,
    "Ġlarger": 44697,
    ");ĊĊĊ": 95282,
    "'+": 130216,
    ".transform": 85460,
    "Ġupload": 54864,
    "ĠĠĠĠĠĠĠĠĠĠĠĠĠĠĠĠĠĠĠĠĠĠĠĠĠĠĠĠĠĠĠĠĠĠĠĠĠĠĠĠĠĠĠĠĠĠĠĠĠĠĠĠĠĠĠ": 5977,
    "Draw": 36550,
    "nel": 119090,
    "ĉfloat": 78938,
    "qrt": 38287,
    "ĠNetwork": 148505,
    "Ġtit": 23714,
    "Axis": 136431,
    ".android": 50752,
    "Ġcompleted": 144201,
    "Ġmur": 134274,
    "Ġcolumns": 76358,
    "xc": 48151,
    "Ġsupply": 29674,
    "iminal": 144929,
    "Ġspr": 2085,
    "================================================================": 26544,
    "Ġunits": 4005,
    "(u": 80628,
    "mi": 144934,
    "replace": 55203,
    "[key": 32688,
    "à¹": 110498,
    "antic": 72339,
    "Ġpayment": 39158,
    ",B": 35434,
    "ĠApple": 3638,
    "gin": 3031,
    "Required": 148456,
    "#+": 50434,
    "lands": 128653,
    "Ġsqu": 32417,
    "Ġfactor": 94922,
    "dec": 79528,
    "Ġstrength": 19909,
    "Ġboy": 6461,
    "Ġbalance": 9535,
    "Ġsources": 64359,
    "screen": 118809,
    "-top": 89342,
    "ĠAmazon": 91148,
    "Ġhidden": 14368,
    "ÐµÑĤ": 134512,
    "_client": 78306,
    "Ġeat": 139909,
    ".display": 144017,
    "ĠÂ»": 56039,
    "Ġtrigger": 17939,
    "anager": 67886,
    "Ġtro": 52055,
    "Ġclaims": 146553,
    "ford": 5630,
    "ĠCompany": 98571,
    "Ġgift": 107797,
    ",:": 21946,
    "_app": 48954,
    "handle": 34401,
    "Ġproduce": 9280,
    "/lib": 136443,
    "Ġ-*": 50441,
    "ĉset": 38305,
    "'];": 121652,
    "arc": 80936,
    "ander": 47858,
    "ĠEngine": 6205,
    "Ġattributes": 71772,
    "task": 15304,
    "<=": 139260,
    "(N": 51439,
    "Ġwarm": 23204,
    "which": 92912,
    "ĠFore": 146134,
    "agnost": 148895,
    "mys": 14859,
    "Ġtal": 94117,
    "ĠSal": 70089,
    "gi": 105807,
    "ĠPrint": 39058,
    "ĠTRUE": 75954,
    "ĠÐ¾": 140790,
    ".UI": 65704,
    "Ġflash": 7247,
    "roperty": 5443,
    ".location": 121234,
    "ĠMill": 138237,
    "bi": 57465,
    "contr": 119373,
    ".request": 21016,
    "ĠSam": 127084,
    "Ġnegative": 133531,
    "kit": 77520,
    "Ġsett": 83878,
    ".printStackTrace": 70477,
    "abe": 4824,
    "ĉi": 21871,
    "Ġburn": 72990,
    "Ġsociety": 19496,
    "Cache": 82272,
    "ĠSecurity": 66419,
    ".models": 41661,
    "ĠWARRANTY": 64850,
    "_up": 41786,
    "ceive": 131376,
    "Ġclients": 36592,
    ".Tr": 87839,
    "Ġproviding": 3331,
    "Ġrout": 141906,
    "material": 112321,
    "Ġ||Ċ": 6657,
    "ĠSer": 34123,
    "ĠOffice": 46215,
    "FTWARE": 37757,
    "Ġ'$": 38804,
    "Ġfoc": 89266,
    "Ġexcell": 135355,
    "Ġcat": 86462,
    "normal": 83898,
    "Ġdetermine": 67668,
    "ĉuint": 60886,
    "Pane": 15882,
    "Ġemployees": 146167,
    "ĠTexas": 107783,
    "Ġtraff": 141772,
    "ĠReport": 72461,
    "anta": 90487,
    "ĠBox": 146850,
    "Ġdjango": 127880,
    "Ġpartner": 49876,
    "EB": 103762,
    "LINE": 58680,
    "Ġfeeling": 83141,
    "Ġcivil": 36352,
    "(float": 126022,
    "Sql": 102979,
    "Ġwouldn": 101695,
    ".init": 79788,
    ".left": 38066,
    "-v": 67320,
    "_level": 119236,
    "'}": 34965,
    "AF": 68289,
    "Ġloading": 72400,
    "ĠOnly": 36328,
    "Ġcookies": 78972,
    "ĠGl": 44197,
    "CO": 143192,
    "Ġstrategy": 20693,
    "('./": 107575,
    "Ġship": 72838,
    "poses": 15992,
    "Ġsignal": 128081,
    "Ġalpha": 140478,
    ".pop": 117977,
    "Radius": 101875,
    "Ġreplace": 143856,
    "_DIR": 147350,
    "counter": 21513,
    "bservable": 22644,
    "ela": 77180,
    "Weight": 146780,
    "hash": 15075,
    "bose": 114333,
    "fx": 93769,
    "ĠEmail": 138357,
    "Ġrefer": 12168,
    "localhost": 81571,
    "_RO": 92022,
    "iques": 141592,
    "Step": 20342,
    "Ġahead": 44130,
    "(View": 58364,
    "ĠServices": 115818,
    "ĠJson": 56134,
    "essor": 27660,
    "Ġpun": 47300,
    "Ġappropriate": 48955,
    "akers": 29412,
    "osen": 125867,
    "posing": 138020,
    "Ġagent": 76162,
    "fc": 40472,
    "Ġtransfer": 43533,
    "Ġinvalid": 122138,
    "ĠResearch": 131609,
    "Vertex": 150812,
    "Ġgay": 138425,
    "Ġjournal": 14930,
    "[x": 108888,
    "Ġ\"\",Ċ": 5077,
    "ĠWell": 47328,
    ".Tasks": 48280,
    "Spec": 133768,
    "Ġol": 26488,
    "Ġspend": 53173,
    "ĠAustralia": 88670,
    "Match": 75634,
    ".junit": 8053,
    "ĠĠĠĠĠĠĠĠĠĠĠĠĠĠĠĠĠĠĠĠĠĠĠĠĠĠĠĠĠĠĠĠĠĠĠĠĠ": 38156,
    "ĠMAX": 20729,
    "izable": 137639,
    "clusive": 39746,
    "_valid": 76520,
    "Ġquarter": 7315,
    "yan": 136900,
    "ĠEdit": 46926,
    "arden": 2583,
    "=new": 79035,
    "Ġfrag": 80405,
    "Bit": 42221,
    "zi": 21653,
    "aine": 131754,
    "udd": 135287,
    ".Object": 135512,
    "debug": 396,
    "Ġcash": 72698,
    "_IM": 29969,
    "Ġeen": 117988,
    "Ġcommercial": 123229,
    "ĠVideo": 35280,
    "loader": 114428,
    "Ġfixed": 67987,
    "Ġapplications": 20324,
    "Ġ_,": 35071,
    "ĠRussia": 116937,
    "itect": 87685,
    "_(": 138389,
    "ĠBlock": 136798,
    "Ġsan": 211,
    "ĠTom": 88842,
    "Ġperhaps": 70583,
    "Ġsig": 108110,
    "levant": 78004,
    "Ġcorpor": 26125,
    "ataset": 25823,
    "ronic": 37022,
    "xe": 136687,
    "Ġeth": 102725,
    "Some": 52918,
    "pop": 91057,
    "_OK": 52659,
    "Ġtend": 147881,
    ".Res": 13366,
    "_and": 109208,
    "Ġreviews": 44862,
    "Ġwild": 135606,
    "Ġdegree": 124922,
    ".O": 67590,
    ".objects": 84711,
    "_args": 44022,
    "nil": 116315,
    "Ġdisabled": 137994,
    "Parent": 55863,
    "Ġnotes": 129472,
    "Ġ\"\"Ċ": 9412,
    "(state": 58973,
    "istrict": 87102,
    "Ġlogging": 36623,
    ".IO": 36618,
    "ĠMal": 71271,
    "DM": 71363,
    "Ġxml": 141266,
    "ĠRobert": 105617,
    "elen": 127789,
    "layout": 115282,
    "fol": 145822,
    "']))": 68050,
    ",b": 137971,
    "ĠJer": 31640,
    "filename": 61046,
    "Ġfan": 10455,
    "ĠCustom": 34012,
    "=\"\"": 94893,
    "ĠDie": 126001,
    "Bundle": 15735,
    ".utils": 82015,
    "Ġtrip": 30495,
    "MB": 108880,
    "Ġsoft": 123424,
    "_MODE": 143717,
    "Ġapplicable": 93838,
    "Ġupper": 40236,
    "ERVER": 127694,
    "_al": 35886,
    "_LOG": 145443,
    "Here": 101561,
    "wp": 25981,
    "ĠServer": 52188,
    "ĠClient": 27867,
    "Ġchem": 141167,
    "Scroll": 15511,
    "Ġhighest": 6068,
    "ĠSelect": 150677,
    "Ġ\"@": 128894,
    "ĠWhy": 150873,
    "Sec": 123021,
    "heel": 120750,
    "Operation": 50928,
    "Ġconnected": 61071,
    "irmed": 52771,
    "Ġcitiz": 76751,
    "ĠChe": 68688,
    "Ġforces": 13298,
    "Ġwww": 5383,
    "Root": 91951,
    "ANCE": 77337,
    "Many": 83613,
    "icip": 37560,
    "rgan": 94076,
    "ĠTor": 58344,
    "ĠPress": 132897,
    "ĠMor": 41865,
    "-line": 75208,
    "uled": 108175,
    ">\\": 13961,
    "Ġthus": 45065,
    "ĠRegister": 73339,
    "hol": 75796,
    "ĠChinese": 77917,
    "Ġposted": 30295,
    "Ġmagn": 105088,
    "abilities": 20440,
    "Ġdisease": 125380,
    "Ġremains": 76905,
    "ĠProf": 129752,
    "-form": 66698,
    "Ġcin": 58934,
    "organ": 40182,
    "icate": 4065,
    "Ġstress": 150749,
    "]*": 4573,
    "Ġ----------------------------------------------------------------": 549,
    "_context": 10690,
    "orry": 30110,
    "Ġdied": 41027,
    "mat": 96439,
    "Ġstarts": 1821,
    ".Message": 32513,
    "Ġruns": 18337,
    "Ġguide": 47934,
    "Ġwarranty": 125268,
    "entials": 112388,
    "dict": 20073,
    "ĠSize": 45226,
    "uler": 103811,
    "Ġresponsible": 54461,
    "_SET": 106239,
    "Ġcontaining": 65471,
    "ĠPrice": 4660,
    "||": 96003,
    "FS": 138437,
    "Ġemp": 44765,
    "_button": 84276,
    "(uint": 39296,
    "Ġsuff": 17298,
    "pth": 135253,
    "Ġdefinitely": 99877,
    "pute": 61641,
    "Ġmarketing": 114830,
    "ĠWH": 89274,
    "ĠSie": 19759,
    "+=": 94871,
    "OLOR": 44468,
    "Ġconsult": 97874,
    "Ġsigned": 96060,
    "Ġsequence": 48619,
    "lee": 42345,
    "Ġrequirements": 44383,
    "hy": 15924,
    "Express": 95276,
    "MT": 48410,
    "sey": 14990,
    "Ġult": 148440,
    "å®": 132052,
    "elligence": 103531,
    "Ġanaly": 109882,
    "Ġdress": 93926,
    "engine": 63427,
    "ĠGreat": 28881,
    "ĠAndroid": 25118,
    "ĠAlex": 101452,
    "mode": 27997,
    "Dictionary": 101081,
    ".Date": 60747,
    "ä½": 18233,
    "VICE": 151564,
    "Ġfamilies": 133182,
    "ĠRussian": 80644,
    "ĠTimes": 62293,
    ".call": 147918,
    "$(": 116834,
    "Profile": 90774,
    "Ġfolder": 68464,
    "ches": 130215,
    "Ġlegis": 88863,
    "_row": 74867,
    "unes": 40126,
    "ÙĦ": 131356,
    "Ġ}).": 43932,
    "Assert": 99418,
    "agen": 67329,
    "ĠHand": 36327,
    "Iter": 102683,
    "Ġbiggest": 23195,
    "oreach": 24246,
    "Ġpolic": 44392,
    "Ġpermissions": 135870,
    "Ġshowed": 21828,
    "ĠElement": 139197,
    "Ġtopic": 120021,
    "âĢĶâĢĶ": 111436,
    "road": 20781,
    "ĠBank": 15020,
    "record": 119416,
    "Ġpartners": 121120,
    "ĠRef": 137886,
    "essions": 62530,
    "Ġassess": 19553,
    "UST": 13984,
    "ĠParty": 140269,
    "produ": 149552,
    "LC": 101815,
    "Ġul": 17539,
    ".form": 109034,
    "hide": 92771,
    "copy": 36204,
    "UTF": 33358,
    "ĠSOFTWARE": 111478,
    "čĊčĊčĊ": 6684,
    "ĠLin": 84616,
    "una": 72768,
    "ugar": 17424,
    "Ġadministration": 100693,
    "Ġopening": 76816,
    "Ġscan": 65564,
    "Ġcontinued": 30136,
    "component": 71804,
    ".sp": 12706,
    "Ġhappens": 30838,
    "ummy": 137011,
    "ĠPR": 50527,
    ".File": 140018,
    "ĠDownload": 16060,
    "Loading": 4598,
    "di": 106499,
    "Ġwaiting": 110335,
    "_ADD": 26498,
    "Tab": 94952,
    ".querySelector": 110121,
    "Ġeconomy": 12034,
    "ĠFrench": 101717,
    "txt": 94213,
    "Ġfant": 14919,
    "_;Ċ": 110211,
    "Holder": 105627,
    "SH": 140951,
    "Ġnumpy": 131738,
    "Ġstreet": 33847,
    "Ġmale": 44608,
    "\\Model": 95559,
    "anging": 33627,
    "ĠBill": 85487,
    "Ġpreviously": 143861,
    "BI": 84119,
    "ĠSecret": 39244,
    "Ġmist": 128968,
    "ĠField": 20877,
    "ups": 104641,
    "ĠProcess": 58875,
    "Ġkept": 36498,
    "ĠOT": 3819,
    "Ġtraditional": 66841,
    ".i": 40751,
    "amin": 147301,
    "Ġhelps": 15645,
    "Any": 24315,
    "origin": 13562,
    "ilters": 84087,
    "ju": 67763,
    "desc": 32377,
    "ĠAccount": 39257,
    "Ġ)čĊ": 109566,
    "ktop": 8516,
    "olly": 95094,
    "Ġfs": 37386,
    "Ġê": 107042,
    "Ġut": 63383,
    "Ġcentral": 132571,
    "(test": 62527,
    ".An": 78476,
    "Ġsatisf": 109341,
    "GR": 85018,
    "ĠFull": 109207,
    "Ġheat": 42060,
    "iber": 89928,
    "Ġonto": 64766,
    "mos": 80957,
    "Schema": 48809,
    "Ġfactory": 57257,
    "\".$": 71422,
    "aws": 63528,
    "Statement": 102876,
    "(target": 106828,
    "ĉnew": 102820,
    ".be": 68084,
    "Ġguest": 19198,
    "Ġmal": 48168,
    "ARY": 114188,
    "Ġreached": 30803,
    "Ġmouse": 56714,
    "Ġchallenge": 138706,
    "ĉdouble": 148315,
    "ĠTem": 13942,
    "Ġterror": 25549,
    "Ġextract": 115077,
    "_TO": 34160,
    "Ġseparate": 91664,
    "Ġmir": 74151,
    "help": 142995,
    "Ġcapacity": 138004,
    "ĠProperty": 75750,
    "kan": 135580,
    "_create": 116924,
    "ĠLight": 135527,
    ".parent": 7970,
    "Ġunderstanding": 18216,
    "Ġeasier": 59161,
    "Ġ|=": 82486,
    "Ġenh": 106866,
    "Ġfat": 71550,
    "Ġprotest": 81095,
    "amm": 2430,
    "_AT": 31182,
    "-of": 27994,
    "ils": 128562,
    "ĠOh": 89138,
    "Ġpsych": 119338,
    "Ġ$.": 80282,
    "inds": 117995,
    "Ġrelative": 830,
    "shop": 128536,
    "short": 110125,
    "ĠSand": 98611,
    "uestion": 88459,
    "Ġfear": 69385,
    "/ĊĊ": 103196,
    ".context": 1948,
    "Ġschools": 43683,
    "Ġserve": 53656,
    "zone": 23506,
    "_db": 127553,
    "Ġmajority": 122669,
    "example": 56055,
    "Ġlang": 122792,
    "ĉĠĠ": 107763,
    "Register": 109992,
    "endo": 102997,
    "Ġprocessing": 150236,
    "_template": 148664,
    "-user": 65516,
    "Ġeg": 45812,
    "COM": 57622,
    "ĠBlue": 77808,
    "iro": 150109,
    "Ġremote": 115515,
    "ĠIT": 74923,
    "#!/": 129763,
    "Ġredistrib": 118685,
    "raz": 125101,
    "ĠSince": 76676,
    "ĠTur": 35766,
    "Background": 132982,
    "===": 66601,
    "Ġreflect": 92442,
    "Ġpros": 132973,
    "cmd": 127645,
    "Ġwhom": 21438,
    "Compat": 146631,
    "ĠAre": 53341,
    "Identifier": 42283,
    "ĠThom": 67248,
    "_port": 78403,
    "gu": 132913,
    "Ġmonitor": 32672,
    "rm": 6335,
    "Ġpatient": 89872,
    "verter": 34075,
    "Ġgain": 46660,
    "-ui": 49702,
    "Inst": 58421,
    "Ġdies": 115791,
    "Area": 100659,
    "_filter": 128406,
    "Ġgrat": 2327,
    "Ġreality": 16013,
    "ordinate": 136284,
    "olved": 38212,
    "Contact": 102172,
    "Ġcompliance": 39107,
    "_or": 146757,
    "ĠVar": 123589,
    "dl": 129569,
    "Ġappend": 97958,
    "GER": 8974,
    "(max": 11272,
    ".render": 93990,
    "Ġdynamic": 101308,
    "ordinates": 142888,
    "_options": 67268,
    "_column": 130355,
    "Ġbatter": 40947,
    "space": 135475,
    "La": 48697,
    "ĠSource": 12639,
    "/bin": 119247,
    "Ġdos": 34779,
    "ĠBoard": 150189,
    "ĠThread": 121887,
    "ĠAL": 88806,
    "(config": 92788,
    "ĠMer": 73378,
    "Ġmiles": 36266,
    "_header": 72037,
    "ETHOD": 125563,
    "izz": 81703,
    "Ġbenefit": 56956,
    "Ġintegr": 120639,
    "(current": 135232,
    "ulo": 36616,
    ".default": 129334,
    "ĠDiv": 48594,
    "Ġton": 121904,
    "oth": 141183,
    "ervation": 42614,
    "edom": 77432,
    "Ġbaby": 125774,
    "ceived": 13723,
    ".top": 122968,
    "riority": 23094,
    "ĠLocal": 142899,
    "riage": 62468,
    "Ġattacks": 10135,
    "Ġhospital": 7510,
    "Ġfemale": 64562,
    "ĠLogin": 23951,
    "ĠFlor": 1459,
    "Ġchain": 100793,
    "ashion": 4596,
    "Texture": 94836,
    "Save": 38894,
    "Ġfarm": 8706,
    ".contains": 86018,
    ".Test": 64105,
    "Ġknows": 98520,
    "Ġgenerally": 9810,
    "ipeline": 148944,
    "Ġmeant": 146105,
    "encia": 66078,
    "Ġnicht": 94315,
    "Ġcontents": 41402,
    "PM": 138929,
    "chedule": 47088,
    "(line": 138928,
    "CG": 114064,
    "job": 26975,
    "ĠReal": 72105,
    "uer": 135946,
    "firm": 116459,
    "ĠØ": 85338,
    "etro": 81729,
    "\"`Ċ": 116976,
    "Ġspeech": 95377,
    "Ġthr": 11024,
    "foreach": 118056,
    "Ġwarn": 137002,
    "ĉl": 68006,
    "Ġheavy": 102545,
    "<li": 136434,
    "Ne": 128689,
    "Ġinvestigation": 107480,
    "Math": 28917,
    "-title": 88499,
    "Ġchurch": 91650,
    "Ġdespite": 88415,
    "chain": 17360,
    "Ġwhatever": 42104,
    "arian": 114973,
    "fn": 106784,
    "Ġmeta": 2921,
    "})ĊĊ": 87402,
    "UFF": 115923,
    "Ġregarding": 55547,
    "_SUCCESS": 40782,
    "mes": 42082,
    "ĠIntent": 37160,
    "Ġresolve": 49709,
    "poss": 69039,
    "ira": 106679,
    "force": 66543,
    "oice": 60964,
    "Ã¢": 92018,
    "Ġpm": 72898,
    "Ġupdates": 22443,
    "Arr": 18991,
    "ĠÑ": 119797,
    "testing": 43624,
    "Ġtoward": 121869,
    "ntax": 85451,
    "ëĭ": 33924,
    "Ġlisten": 5867,
    "Ġgoals": 69971,
    "InstanceState": 103181,
    "Dr": 81179,
    "Ġrare": 59655,
    "Ġtrail": 35365,
    "Keys": 89280,
    "Cal": 50167,
    "Car": 104560,
    "ĠPeople": 52168,
    "ĉlocal": 98207,
    "classes": 65001,
    "Reference": 6562,
    ".forEach": 141691,
    "emb": 25655,
    "activ": 15222,
    "Ġprim": 105158,
    "redict": 90144,
    "Ġrad": 147479,
    "æķ°": 86992,
    ".Back": 90782,
    "Ġspread": 90962,
    "Ġclock": 119197,
    "Ġvir": 148791,
    "editor": 77814,
    "Ġefforts": 5547,
    "Ġbranch": 90163,
    "Ġindust": 109790,
    "Ġmotor": 116918,
    "Ġamb": 44906,
    "Ġdatetime": 97955,
    "Ġrencont": 8222,
    "ĠChristian": 96830,
    "ĠAmericans": 27765,
    "full": 89988,
    "Ġfmt": 10938,
    ".main": 3443,
    "Ġcaused": 2003,
    "_update": 95682,
    "ĠContent": 36140,
    "ATCH": 49168,
    "Ġbath": 69313,
    "ĠEach": 107749,
    "Ġradio": 76456,
    "achment": 141511,
    "uzz": 37284,
    "Submit": 93280,
    "Ġrestrict": 111506,
    "abin": 113702,
    "ĠLoad": 11321,
    "Ġextension": 53090,
    "Ġessay": 122106,
    "Ġhat": 83502,
    "aviour": 50848,
    "toBe": 77998,
    "\":[": 74391,
    "Ġoffered": 105569,
    "Ġvill": 83541,
    "(double": 138678,
    "æĹ¥": 143996,
    "bc": 104606,
    "_free": 144053,
    "ĠMiss": 23314,
    "ĠBer": 96988,
    "Ġè": 47620,
    "ĠLike": 118584,
    "Ġhelped": 4347,
    ".getName": 32901,
    "_AL": 40419,
    "Ġspirit": 73415,
    "ĠApache": 137583,
    "ws": 148775,
    "Ġtherefore": 53421,
    "(params": 54742,
    "_img": 120671,
    "Ġpeace": 68806,
    "Ġincor": 141110,
    "ĠEXPECT": 98007,
    "Ġminor": 59873,
    "ipes": 66706,
    "ĉdata": 114542,
    "selector": 40247,
    "city": 147579,
    "trie": 63922,
    ".base": 46282,
    "_frame": 32750,
    "Ġopened": 10532,
    "/json": 82663,
    "LY": 112163,
    "nu": 9121,
    ".De": 62521,
    "tf": 124185,
    "margin": 17589,
    ".Parse": 75994,
    "Ġpi": 2229,
    "Ġeq": 56778,
    "bd": 22288,
    "Fields": 14608,
    "ĠTree": 130535,
    "Ġban": 62005,
    "istan": 66560,
    "ĊĠĠĠĠĠĠĠĠĊ": 14666,
    "ĉgl": 69391,
    "Ġproduced": 113562,
    "system": 99289,
    "Mark": 113139,
    "_hash": 87992,
    "Ġbg": 22673,
    "Ġconstit": 70608,
    "ĠLeague": 500,
    "Ġmission": 133177,
    "_format": 108057,
    "([Ċ": 58060,
    "clusion": 86422,
    "!\"": 61669,
    "Ð·": 10801,
    "break": 70666,
    "ĉswitch": 71473,
    "Ġther": 50731,
    "Transform": 121362,
    "Ġfootball": 48533,
    "-link": 107576,
    "route": 35328,
    ".auth": 3776,
    "Ġbag": 7851,
    "overs": 47493,
    "Ġenabled": 147218,
    "Ġrac": 67158,
    "(I": 28440,
    "CR": 146178,
    "ancing": 85610,
    "Ġmanaged": 34159,
    "_q": 24076,
    "NGTH": 77033,
    "Ġmac": 92005,
    "ĠAuto": 76784,
    "amente": 78662,
    "Ġ'',": 39191,
    ".Append": 14219,
    "Ġpin": 98261,
    ".item": 43498,
    "acking": 95275,
    "Ġoccas": 72568,
    "person": 56984,
    "Ġti": 31124,
    ".Reg": 139716,
    "Ġhaven": 54511,
    "Ġglass": 31508,
    "Ġ\"</": 64405,
    "ĠSimple": 141382,
    "Print": 135111,
    "Ġsurround": 110879,
    "NO": 83087,
    "ãĢĤĊ": 117943,
    "ĠĠĠĠĠĠĠĠčĊ": 54737,
    "ĠMany": 122062,
    "Ġ\"_": 43695,
    "Ġweekend": 34626,
    "Ġsomew": 84864,
    ".params": 104375,
    "small": 17527,
    "ATED": 53925,
    "Ġplugin": 107689,
    "fields": 22824,
    "ĠInitialize": 84308,
    "oon": 146021,
    "atile": 143906,
    "ye": 149133,
    "Ġvous": 117748,
    "LAG": 101251,
    "Ġolder": 79477,
    "Ġgam": 151448,
    "Ġextremely": 138450,
    "Ġhet": 7669,
    "enum": 20174,
    "ĠSET": 98164,
    "xff": 49822,
    "Ġtimer": 43859,
    "/index": 56793,
    "Ġcritical": 89515,
    "Rows": 112003,
    "_argument": 14900,
    "Ġexecute": 136583,
    "Ġshowing": 72467,
    ".xml": 90174,
    "-list": 136837,
    "Role": 36181,
    "typename": 65756,
    "_method": 136525,
    "that": 19472,
    "cher": 68636,
    "ĠâĨ": 106318,
    "XT": 36216,
    "Ġthousands": 70428,
    "ĉn": 122873,
    "Ġresp": 118673,
    "_price": 34368,
    "olut": 128779,
    "Ag": 19208,
    "ĠTwo": 108536,
    "Ġbecomes": 129514,
    "Ġhus": 43207,
    ".Use": 83284,
    "theme": 51546,
    "urb": 143872,
    "Ġ/*Ċ": 143295,
    "erialize": 51286,
    "ARN": 70354,
    "Ġlose": 71234,
    "Lower": 37464,
    "Ġvel": 93987,
    "Ġdefense": 135173,
    "condition": 67074,
    "Ġbes": 12119,
    "Ġdry": 20966,
    "Ġscroll": 101127,
    ".Show": 8041,
    "IEL": 22537,
    "Ð¾ÑĢ": 61403,
    "ĠRest": 133251,
    "Where": 144504,
    "oods": 42277,
    "ĠJes": 142578,
    "Ġwire": 130932,
    "_INFO": 138434,
    "Ġstrings": 95227,
    "gment": 33888,
    "Ġmatches": 149686,
    "Ġelectric": 99100,
    "Ġexcellent": 149650,
    "ĠCouncil": 110646,
    "idade": 78175,
    "Ġwx": 120971,
    "push": 44285,
    "_entry": 133853,
    "Ġtasks": 109417,
    "Ġrich": 38773,
    "sa": 56383,
    "ĠSmith": 2095,
    "UNCTION": 132690,
    "Pointer": 2078,
    "pective": 129171,
    "Ġwidget": 52500,
    "ista": 143613,
    "Ġagency": 46452,
    "Ġsich": 123289,
    "ologies": 78831,
    "Ġtrial": 48655,
    "alysis": 26274,
    ".check": 31464,
    "ARK": 93049,
    "ĠonChange": 32234,
    "about": 54929,
    "',$": 44858,
    "(val": 26831,
    "Ġplaced": 80140,
    "_NO": 89145,
    "Ġdan": 104501,
    ".equal": 37268,
    "ĉĠĠĠĠĠ": 29095,
    "Ġweather": 133598,
    ".game": 22066,
    "Ġdestination": 66186,
    "_USER": 4433,
    "iece": 10530,
    "Ġprovider": 36602,
    ".last": 6940,
    "plex": 145160,
    "Note": 26856,
    "/js": 107288,
    "ĠpÃ¥": 19744,
    "Ġplanning": 78041,
    "attribute": 66955,
    "PRO": 124618,
    "atches": 15462,
    "Ġ<-": 137773,
    "Ġseeing": 29100,
    "Ġcancel": 23722,
    "_ind": 58734,
    ".keys": 27487,
    "Ġvisual": 15929,
    "ĠCurrent": 42908,
    "ĠCollege": 109350,
    "ĠRock": 122791,
    "Ġagreement": 27986,
    "ĠStore": 34646,
    "oving": 50833,
    "Ġcorner": 78832,
    "ampions": 89406,
    "ISE": 81526,
    "Fin": 111948,
    "Ġprotection": 31760,
    "Ġfi": 49773,
    "Play": 109702,
    "plugin": 63086,
    ")}": 2179,
    ".frame": 87602,
    "-z": 127001,
    "Ġtransition": 21952,
    "igin": 118701,
    "Ġcandidate": 110000,
    "ĠUnion": 6944,
    "_values": 37544,
    "(map": 38724,
    "cle": 150586,
    "Ġtrend": 80977,
    "wide": 52405,
    "aren": 127013,
    "Loc": 27850,
    "UTH": 92921,
    "ĠBay": 63140,
    "Ġsmaller": 22126,
    "ius": 35407,
    "well": 395,
    "Ġcriminal": 30276,
    "Ġconflic": 34555,
    "bert": 138572,
    "_INT": 96736,
    "Ġinvestment": 13055,
    "custom": 135353,
    "ĠSession": 38542,
    "_write": 75639,
    "ania": 38374,
    "ĠMass": 12328,
    "_EQ": 147604,
    "_NOT": 126360,
    "Ġviolence": 85173,
    "Argument": 139240,
    "_email": 122886,
    "Ġbelong": 144231,
    "_function": 65193,
    "Ġenemy": 30530,
    "ema": 66260,
    "ĠAddress": 33626,
    ".empty": 137701,
    "Ġinner": 40391,
    "ĠContact": 143337,
    "Loader": 91799,
    "<input": 98509,
    "ĠCA": 38961,
    "lot": 44998,
    "Ġpictures": 92876,
    "ĠSupport": 44047,
    "_names": 62221,
    "Layer": 151614,
    "ĠClick": 95750,
    "Sum": 43614,
    "Ã¦": 18248,
    "ĠLook": 32663,
    "uous": 106708,
    "Lib": 128307,
    "Flags": 99358,
    "team": 86368,
    "EP": 138289,
    "hat": 82353,
    "override": 88580,
    "apsed": 104734,
    "Ġlabels": 57851,
    "quis": 137575,
    "ĠStream": 151513,
    "_device": 96163,
    "ĠCommit": 35835,
    "(root": 3454,
    "\"}": 20340,
    ".isEmpty": 81019,
    "ĉM": 33821,
    "Ġangle": 44427,
    "ĠBecause": 126348,
    "%%%%%%%%": 27242,
    "Ġaim": 67310,
    "Ġstick": 58193,
    "stmt": 129342,
    "agraph": 125585,
    "answer": 84742,
    "Ġclin": 84781,
    "ĠIsl": 59378,
    ".ext": 27706,
    "ĠINT": 14964,
    "Ġstyles": 45493,
    "Ġborn": 9770,
    "Ġscr": 94943,
    "Ġexpand": 46850,
    "Ġraised": 116397,
    "TextBox": 78077,
    "ILL": 119078,
    "------------------------------------------------": 92409,
    "HTTP": 10355,
    ">)": 85696,
    "_char": 64818,
    "resource": 12921,
    "Ġepisode": 135025,
    "Ġ'_": 24075,
    "ĠEs": 73949,
    "ĠEarth": 31900,
    "ÂłÂł": 142264,
    "UPDATE": 111240,
    "ĠSou": 90496,
    "uis": 76922,
    "types": 17785,
    "Ġmas": 83240,
    "Ġfav": 74801,
    "Ġconstruct": 27110,
    "_rate": 128961,
    "eras": 7809,
    "Ġ|Ċ": 18640,
    "roperties": 143828,
    "Ġexternal": 105324,
    "Ġapplied": 148874,
    "Ġprefix": 57401,
    "oted": 112775,
    "lers": 121947,
    "Ġcold": 72307,
    "ĠSP": 46159,
    "ĠChurch": 128640,
    "ĠOutput": 124161,
    "losed": 20376,
    "çļ": 44851,
    "ificate": 87607,
    "operation": 101719,
    "herit": 144905,
    "xFF": 147415,
    ".env": 123622,
    "_err": 149720,
    "osh": 21584,
    "Direction": 100961,
    "Cancel": 7434,
    "ĠFrank": 139309,
    "Ġfinding": 95792,
    ".)ĊĊ": 151183,
    "Ġrouter": 91716,
    "ãĥ»": 91726,
    "ses": 78256,
    "Ġcrow": 127710,
    "=='": 24788,
    "Ġsand": 100926,
    "Ġrid": 135449,
    "iture": 138787,
    "Ġentre": 114412,
    "Ġobserv": 70855,
    "Ġvac": 150097,
    "ðŁ": 37020,
    "-T": 139228,
    "Art": 5809,
    "night": 133737,
    ".search": 90526,
    "Ġexchange": 57370,
    "Ġdistrict": 32637,
    ".os": 130554,
    "Ġdepartment": 117498,
    "Ġdocuments": 98461,
    "Ġcentury": 35632,
    "ĠNext": 32216,
    "Host": 139842,
    "ĠKIND": 101224,
    "Ġsusp": 67550,
    "-P": 119773,
    "rend": 67108,
    ".em": 81193,
    "uite": 49164,
    "isters": 6525,
    "(json": 47838,
    "ĠAnn": 53102,
    "wt": 63199,
    "ati": 146226,
    "ĠHTML": 122371,
    "when": 97853,
    "Directory": 90835,
    "Ġshut": 34908,
    "<a": 150564,
    "edy": 125343,
    "Ġhealthy": 2726,
    "Ġtemperature": 63002,
    "ĠGen": 67883,
    "Ġmetal": 143139,
    "Ġsubmit": 96846,
    "ĠDO": 107590,
    "Ġattract": 87695,
    "Ġ{};Ċ": 50733,
    "ĠWord": 131788,
    "Ġll": 123235,
    "Ġseemed": 43657,
    "ko": 127954,
    "IED": 122302,
    "Ġlabor": 18471,
    ".Context": 61962,
    "Ġasset": 110026,
    "you": 97006,
    "Ġcars": 67789,
    "ĠColumn": 57854,
    "ĠrÃ©": 78782,
    "Ġsquare": 87165,
    "ĠNSString": 42500,
    "âĢĿ,": 119613,
    "apes": 125581,
    "...Ċ": 26628,
    "Ġthanks": 33156,
    "(props": 26199,
    "Ġtick": 56691,
    "Ġexperiment": 105997,
    "Ġprison": 83391,
    "tree": 81561,
    "-text": 139741,
    "ĠIOException": 92536,
    "-width": 20832,
    "_STATUS": 112319,
    "fast": 4182,
    "-body": 20424,
    "-header": 78769,
    "Ġguar": 47450,
    "crete": 12124,
    "ĠTim": 64985,
    "Ġclearly": 82016,
    "ĠRepublican": 84222,
    "Ġjustify": 108584,
    "Ð¸ÑĤ": 118230,
    "ĉĠĠĠĠ": 123344,
    "cache": 73411,
    ";//": 74116,
    "Ġpresence": 34561,
    "Ġfactors": 13120,
    "Ġemployee": 51467,
    "]))": 25435,
    "Member": 37222,
    "Ġselector": 107674,
    "bor": 9933,
    "ĠMex": 34309,
    "çļĦ": 74574,
    "utex": 12644,
    "_tag": 119172,
    "ailure": 51557,
    "ĠNet": 139223,
    "Ġreli": 52184,
    "EG": 111796,
    "Ġfprintf": 106656,
    "Ġteen": 84518,
    "loss": 85775,
    "Ġleaving": 63974,
    "Delegate": 26601,
    "Ġbeat": 58539,
    "Ġminute": 108500,
    "subscribe": 33040,
    "Ġredistribute": 26819,
    "Constants": 124412,
    "Ġcancer": 4148,
    "/{": 133261,
    "BL": 52656,
    "Ġspan": 109145,
    "ĠChild": 15041,
    "Center": 23641,
    "Ġearth": 1032,
    "YS": 110886,
    "ĠLevel": 1517,
    "Ġsea": 32863,
    ".support": 14854,
    ".inner": 149402,
    ".Item": 16746,
    "illing": 12099,
    "ĠĠĠĠĊĠĠĠĠĊ": 48855,
    "ĠLabel": 66662,
    "ĠEst": 125007,
    "(arg": 58663,
    "boBox": 69115,
    "ĉforeach": 128245,
    "cos": 132347,
    "Failed": 136665,
    "swers": 35898,
    "Editor": 26994,
    "ront": 100322,
    "ĠMP": 120744,
    "expr": 21824,
    "ĠLife": 17618,
    "Ġ??": 99099,
    "Ã¶r": 96250,
    "Ġattend": 66891,
    "ĠQue": 88035,
    "Ġspecies": 115931,
    "-D": 56442,
    "Ġaus": 110342,
    "Struct": 63589,
    "Ġadvantage": 84600,
    "oston": 132614,
    "-block": 53051,
    "initial": 80911,
    "CRE": 148508,
    "Ġtruly": 24615,
    "Ġcompare": 6907,
    "orney": 110776,
    "Ġspect": 81232,
    "Full": 55476,
    "bes": 98162,
    "Ġvisible": 56110,
    "Ġmess": 40345,
    "stances": 58891,
    "Ġcloud": 43987,
    "_version": 4769,
    "Ġfurn": 141702,
    "icago": 105772,
    "LOW": 140616,
    "Ġtraffic": 25267,
    "Ġfol": 41158,
    "rypto": 51337,
    "Ġdeclar": 245,
    "Ġslot": 120308,
    "ĠExt": 32552,
    "ĠEngland": 67925,
    "ĠUnder": 106399,
    "Ġta": 17036,
    "letter": 54977,
    "Ġofficer": 93863,
    "ĠDonald": 91200,
    "Yes": 88996,
    "_json": 116113,
    "ITableView": 15757,
    "ĠUSE": 47381,
    "mployee": 110258,
    "Ġopinion": 76522,
    "ĠAut": 122777,
    "border": 91784,
    "Ġadvice": 18666,
    "Ġautomatically": 122653,
    "isco": 130795,
    "Ġmm": 285,
    ".vis": 60900,
    "aml": 44075,
    "Ġinitialize": 100195,
    "Ġ({": 69611,
    "Ġ;ĊĊ": 140515,
    "Ġgeneration": 84521,
    "Ġbits": 16672,
    "clipse": 139012,
    "Ġunf": 144248,
    "utors": 101693,
    "plt": 32908,
    "Ġdelta": 75422,
    "estroy": 108702,
    "isis": 114833,
    "<br": 98298,
    "Ġlimitations": 86392,
    "Ġended": 40586,
    "ĠMad": 141116,
    "ilm": 116628,
    "These": 10441,
    "ĠMinister": 97104,
    "Ġchart": 65961,
    "Fragment": 119351,
    "Ġindependent": 120334,
    "Year": 43006,
    "Ġinstr": 124428,
    "Ġtags": 47359,
    "AVE": 100247,
    "ĠArch": 81690,
    "stop": 74543,
    "Progress": 21869,
    "Ġmi": 132778,
    "Ġlearned": 115993,
    "Ge": 88892,
    "Ġhotel": 39739,
    "SM": 63877,
    "TYPE": 118065,
    "Ġcy": 71026,
    "ERSION": 124912,
    "unately": 7108,
    "limit": 32435,
    "sel": 62917,
    "Ġmovies": 141531,
    "Ġsteel": 55871,
    "oz": 64092,
    "gb": 130378,
    "ĠCamp": 44414,
    "site": 11360,
    "ĠLogger": 96368,
    "PLE": 43328,
    "Ð¾Ð´": 105698,
    ".right": 147596,
    "ĠCore": 145845,
    "Ġmixed": 36361,
    "step": 89548,
    "Ġputs": 82224,
    "super": 67963,
    "Router": 28726,
    ".Http": 19522,
    "lyph": 139542,
    "ĠColors": 27440,
    "Ġandroidx": 145406,
    ".str": 124091,
    "Ġinnov": 67694,
    "Ġdeck": 3621,
    "'>Ċ": 23343,
    "apers": 57757,
    "](": 52209,
    "continue": 76795,
    "spec": 132156,
    "ĠRoad": 11590,
    "ASH": 31394,
    "iliar": 13870,
    "Ġcontinues": 44000,
    "Ġappoint": 138641,
    "Ġ#Ċ": 122387,
    "ĠVir": 62127,
    "Ġ?>\"": 47618,
    "Ġbin": 92223,
    "}\",": 7562,
    "going": 68597,
    "each": 50464,
    "BD": 68382,
    "ĠAccess": 74227,
    "Doc": 64274,
    "ĠManagement": 97102,
    "BER": 129778,
    "asket": 61837,
    ".getInstance": 77952,
    "Ġestablished": 64551,
    "socket": 81140,
    "INS": 121518,
    "ĉvirtual": 62736,
    "ĉresult": 135097,
    "READ": 62319,
    "_height": 88678,
    "ĠFont": 50749,
    "Ġ();Ċ": 45655,
    "_html": 11904,
    "Ġneighbor": 36770,
    "lor": 23957,
    "Ġgather": 55755,
    "Ġ})ĊĊ": 107197,
    "Ġidentity": 128373,
    "Ġfab": 86031,
    "padding": 43761,
    "ĠRoute": 11258,
    "Enumerable": 143254,
    "Ã´": 124559,
    "Ġforced": 9624,
    "/jquery": 145170,
    ".ĊĊĊĊĊĊ": 139041,
    "resents": 72875,
    "_left": 46892,
    ".Param": 117801,
    "ĉthrow": 131583,
    "ĠHam": 150651,
    "Ġeventually": 143778,
    "acer": 147628,
    "pub": 12500,
    "Ġtra": 96465,
    "unique": 132509,
    "del": 84175,
    "ĠFlorida": 115702,
    "ĠClean": 16513,
    "xa": 29580,
    "ĠÂ·": 24512,
    "Ġvalidate": 66234,
    "Visual": 37149,
    "Expression": 119112,
    "_func": 74170,
    "member": 67096,
    "ĉh": 145627,
    "trl": 66130,
    "ĉG": 133536,
    "napshot": 68302,
    "ĠPropTypes": 33425,
    "vin": 35876,
    "])ĊĊ": 99536,
    "owl": 147191,
    "ifies": 49692,
    "Ġ$('.": 90364,
    "ĠContext": 77501,
    "ĠToast": 128630,
    ".Key": 78379,
    "Ġofficers": 36557,
    "/n": 107789,
    "sn": 85274,
    "undefined": 135203,
    ".items": 72376,
    "utow": 48976,
    "amage": 10832,
    "Ġaccounts": 59600,
    "ookie": 128025,
    "Section": 139009,
    "icians": 40481,
    "Ġadvis": 127131,
    "(is": 47079,
    "[:,": 77714,
    "ĠFrance": 94929,
    "Func": 32877,
    "icious": 13443,
    "Ġtok": 42905,
    "Channel": 56742,
    "ĠAD": 73444,
    "_NUM": 112863,
    "Ġtimeout": 107808,
    "lemma": 141224,
    "reme": 7551,
    "uj": 9521,
    ".Al": 65334,
    "uclear": 145462,
    "(os": 78638,
    "(\"<": 66851,
    "[Ċ": 36487,
    "fetch": 13872,
    "Ġbal": 55733,
    "Ġguid": 141430,
    "-align": 148724,
    "ĠWrite": 26996,
    "ĠOnce": 44743,
    "utowired": 845,
    "ODULE": 67476,
    "Ġpitch": 113142,
    "CF": 108834,
    "bytes": 128341,
    "ĠCommission": 150164,
    "Ġincred": 19245,
    "PER": 6066,
    "_response": 148192,
    "ĠLos": 93635,
    "parser": 70719,
    "Ġassume": 93029,
    ".Request": 4457,
    "ĠToken": 33684,
    "_position": 115095,
    "Ġnom": 140793,
    "-term": 89035,
    "Ġremaining": 148419,
    "iostream": 109049,
    "Ġpieces": 34111,
    "apy": 112539,
    "ĠLess": 4901,
    "range": 16333,
    "umbn": 111973,
    "prise": 64973,
    "_option": 58815,
    "Impl": 122640,
    "kwargs": 83785,
    "Ġbusinesses": 18813,
    "Alert": 101095,
    "Ġparties": 53096,
    "ĠContainer": 137672,
    "ĠPrivate": 33243,
    "ĠPlan": 6751,
    "Ġregistered": 134906,
    "Ġjour": 28211,
    "acker": 78188,
    "ÐµÐ½Ð¸": 22380,
    "/>": 42894,
    "chat": 118133,
    "sect": 112957,
    "Ġcreation": 25409,
    "olutely": 97071,
    "Ġinstant": 84645,
    "Ġdelivery": 85552,
    "icken": 124153,
    "yes": 9141,
    "ĠFranc": 142090,
    "bling": 127721,
    "enda": 134085,
    "[(": 40788,
    "_range": 127702,
    "ĠĠĠĠĠĠĠĠĠĠĠĠĠĠĠĠĠĠĠĠĠĠĠĠĠĠĠĠĠĠĠĠĠĠ": 75673,
    "Ġschedule": 64831,
    "Conn": 125481,
    "Ġthank": 96743,
    "xd": 116026,
    "Ġhook": 108580,
    "Ġdocumentation": 136576,
    "Parameters": 148278,
    "Hello": 13711,
    "vt": 44891,
    "Ġarticles": 56667,
    "Ġwest": 100453,
    "defined": 114299,
    ".select": 64682,
    "okens": 62298,
    "ĠVAL": 98286,
    ".file": 18033,
    "reset": 103614,
    "Ġmys": 7352,
    "ĠMA": 29682,
    "]),": 107316,
    "Ġcities": 88383,
    "related": 9648,
    "åĽ": 109038,
    "Ġappeared": 55428,
    "Ġwid": 132407,
    ".panel": 18262,
    "ĠIns": 14499,
    ".entity": 143408,
    "Ġdecre": 99549,
    "ĠLou": 83398,
    "(time": 60604,
    "ĠThank": 24614,
    ".createElement": 141295,
    "Ġmentioned": 88258,
    "ounce": 55240,
    "ĠTry": 117340,
    "ĠWall": 147472,
    "/images": 23000,
    "ĠMenu": 6933,
    "'čĊ": 126154,
    "ĠEr": 114653,
    "Ġcritic": 138266,
    "ĠYear": 67746,
    "(param": 59624,
    "Ġflo": 56549,
    "NN": 19700,
    "ooter": 7281,
    "Ġ];Ċ": 144335,
    "ĠAff": 79773,
    "\"github": 13683,
    "rooms": 40060,
    "Ġhyp": 119982,
    "global": 84328,
    "Ġavec": 34984,
    "æľĪ": 129564,
    "Ġcompletion": 82786,
    "Ġcond": 121103,
    "onymous": 14899,
    "(temp": 103193,
    "Ġstars": 133619,
    "Ġrelevant": 56860,
    "Ġcovered": 39420,
    "Ġelim": 812,
    "_types": 28866,
    "(bool": 35567,
    "Ġtu": 57853,
    "_exists": 79566,
    "Ġsecure": 17205,
    "Ġstored": 69291,
    "]/": 96201,
    "xF": 50031,
    "ĠController": 116098,
    "Ġmigr": 55867,
    "MI": 147204,
    "ĠDen": 107105,
    "Ġannual": 149749,
    "UIL": 43726,
    "-and": 96113,
    "Ġcrime": 99608,
    "bel": 116844,
    "Ġkitchen": 117534,
    "@g": 145954,
    "_ph": 107331,
    "ournament": 137488,
    "ĠSocial": 117037,
    "ĠSpecial": 4000,
    "logger": 103317,
    "Ġtail": 118335,
    "Ġunknown": 82366,
    "ded": 24204,
    "Ġapprec": 27627,
    "(db": 114220,
    "cf": 120436,
    "Ġassign": 1962,
    "-out": 142552,
    "ĠMont": 129167,
    "dp": 97395,
    "widget": 51306,
    "Ġstone": 86273,
    "-primary": 48949,
    ".grid": 132302,
    "Results": 117940,
    "azz": 86649,
    "Ġdaughter": 120271,
    "Ġcurr": 124906,
    "Ġlin": 45712,
    "Ġsouth": 129972,
    "forms": 16539,
    "ĠOUT": 110428,
    "lette": 15879,
    "aks": 37168,
    "igure": 136099,
    "ĠEU": 30635,
    "variable": 144640,
    "Ġbrief": 147633,
    "ĠScott": 150512,
    "Ġconference": 98125,
    "anda": 81721,
    "_lock": 113325,
    "oral": 32167,
    "Ġeine": 33842,
    "ORS": 125749,
    "////////////////////////////////////////////////////////////////": 117429,
    "esso": 147458,
    "Ġris": 82430,
    "Ġgender": 45776,
    "estic": 12208,
    "License": 79039,
    "(out": 124383,
    "Ġms": 15167,
    "See": 114464,
    "Ġwilling": 83931,
    "aze": 103654,
    "Ġsports": 19160,
    "Ġyes": 1933,
    "lu": 20918,
    "Ġpurs": 101870,
    "/javascript": 141121,
    "-pro": 137337,
    "navbar": 77455,
    "_product": 17325,
    "/bootstrap": 45425,
    "Ġdriving": 146325,
    "ĠÄ": 111909,
    "Ġpropos": 38316,
    "ultip": 77923,
    "uplic": 21369,
    ".email": 131487,
    "Ġapprox": 65264,
    "(cl": 76180,
    "Ġwear": 97393,
    "Ġreply": 93474,
    "asset": 139131,
    "Ġice": 129063,
    "Ġtx": 76740,
    "kr": 2977,
    "ĠGermany": 43877,
    "ĠGeorge": 38714,
    "Ġcb": 2087,
    "ĉerr": 60371,
    "Move": 32568,
    "Ġpoly": 150583,
    "voice": 79068,
    "}\"": 64358,
    "Ġanimal": 111123,
    "Av": 117587,
    "ĠLocation": 4540,
    "Ġnative": 44228,
    "][\"": 71587,
    "<double": 61866,
    "Ġmais": 67200,
    ",int": 146125,
    "Ġprepar": 35521,
    "Ġinterval": 138683,
    "plementation": 30172,
    "_ERR": 72953,
    "Ġbug": 20763,
    ">\"": 106756,
    "stat": 65887,
    "Ġ},čĊ": 144065,
    "<span": 145659,
    "Ġfaith": 21268,
    "Ġrom": 17442,
    "prev": 145240,
    "ĠElect": 86091,
    "Find": 93382,
    "Ġgod": 105141,
    "otor": 119511,
    "//----------------------------------------------------------------": 51122,
    "original": 128240,
    "Cpp": 26281,
    "ĠSenate": 104826,
    "Ġpositions": 61576,
    "Ġweapons": 67996,
    "Ġcoff": 74718,
    "Ġpurposes": 83122,
    "pol": 144372,
    "Ġimpress": 69814,
    "Ġanimals": 93858,
    ".Entity": 59574,
    "(np": 40088,
    "Ġmurder": 99774,
    "Ġ``": 64893,
    "flag": 55765,
    "Ġsolutions": 26594,
    "ĠActive": 55962,
    "Ġbright": 61313,
    ".date": 143708,
    "Ġsitu": 121196,
    "ï¼Ī": 48579,
    ".ID": 123912,
    "Ġsie": 4384,
    "),čĊ": 107881,
    "akt": 123891,
    "Space": 105508,
[...]
